unsigned char model_tflite[] = {
  0x1c, 0x00, 0x00, 0x00, 0x54, 0x46, 0x4c, 0x33, 0x14, 0x00, 0x20, 0x00,
  0x04, 0x00, 0x08, 0x00, 0x0c, 0x00, 0x10, 0x00, 0x14, 0x00, 0x00, 0x00,
  0x18, 0x00, 0x1c, 0x00, 0x14, 0x00, 0x00, 0x00, 0x03, 0x00, 0x00, 0x00,
  0x18, 0x00, 0x00, 0x00, 0x30, 0x00, 0x00, 0x00, 0xe4, 0x00, 0x00, 0x00,
  0x30, 0x00, 0x00, 0x00, 0x8c, 0x00, 0x00, 0x00, 0x84, 0x00, 0x00, 0x00,
  0x06, 0x00, 0x00, 0x00, 0x04, 0x07, 0x00, 0x00, 0x5c, 0x06, 0x00, 0x00,
  0x58, 0x05, 0x00, 0x00, 0xb0, 0x03, 0x00, 0x00, 0xfc, 0x02, 0x00, 0x00,
  0xbc, 0x01, 0x00, 0x00, 0x01, 0x00, 0x00, 0x00, 0xd8, 0x00, 0x00, 0x00,
  0x16, 0x00, 0x00, 0x00, 0x68, 0x4b, 0x00, 0x00, 0x64, 0x4b, 0x00, 0x00,
  0xa4, 0x4a, 0x00, 0x00, 0x04, 0x4a, 0x00, 0x00, 0x60, 0x49, 0x00, 0x00,
  0xc0, 0x48, 0x00, 0x00, 0x48, 0x48, 0x00, 0x00, 0xf4, 0x47, 0x00, 0x00,
  0x98, 0x47, 0x00, 0x00, 0x4c, 0x3f, 0x00, 0x00, 0xbc, 0x3d, 0x00, 0x00,
  0x68, 0x0d, 0x00, 0x00, 0x10, 0x07, 0x00, 0x00, 0x34, 0x4b, 0x00, 0x00,
  0x30, 0x4b, 0x00, 0x00, 0x2c, 0x4b, 0x00, 0x00, 0x28, 0x4b, 0x00, 0x00,
  0x24, 0x4b, 0x00, 0x00, 0x20, 0x4b, 0x00, 0x00, 0x1c, 0x4b, 0x00, 0x00,
  0x18, 0x4b, 0x00, 0x00, 0x3c, 0x00, 0x00, 0x00, 0x00, 0x00, 0x00, 0x00,
  0x01, 0x00, 0x00, 0x00, 0x0c, 0x00, 0x00, 0x00, 0x08, 0x00, 0x0c, 0x00,
  0x04, 0x00, 0x08, 0x00, 0x08, 0x00, 0x00, 0x00, 0x08, 0x00, 0x00, 0x00,
  0x15, 0x00, 0x00, 0x00, 0x13, 0x00, 0x00, 0x00, 0x6d, 0x69, 0x6e, 0x5f,
  0x72, 0x75, 0x6e, 0x74, 0x69, 0x6d, 0x65, 0x5f, 0x76, 0x65, 0x72, 0x73,
  0x69, 0x6f, 0x6e, 0x00, 0xea, 0xb5, 0xff, 0xff, 0x04, 0x00, 0x00, 0x00,
  0x10, 0x00, 0x00, 0x00, 0x31, 0x2e, 0x31, 0x30, 0x2e, 0x30, 0x00, 0x00,
  0x00, 0x00, 0x00, 0x00, 0x00, 0x00, 0x00, 0x00, 0x0f, 0x00, 0x00, 0x00,
  0x4d, 0x4c, 0x49, 0x52, 0x20, 0x43, 0x6f, 0x6e, 0x76, 0x65, 0x72, 0x74,
  0x65, 0x64, 0x2e, 0x00, 0x00, 0x00, 0x0e, 0x00, 0x18, 0x00, 0x04, 0x00,
  0x08, 0x00, 0x0c, 0x00, 0x10, 0x00, 0x14, 0x00, 0x0e, 0x00, 0x00, 0x00,
  0x14, 0x00, 0x00, 0x00, 0x64, 0x00, 0x00, 0x00, 0x68, 0x00, 0x00, 0x00,
  0x6c, 0x00, 0x00, 0x00, 0x8c, 0x00, 0x00, 0x00, 0x14, 0x00, 0x00, 0x00,
  0x30, 0x4a, 0x00, 0x00, 0xdc, 0x49, 0x00, 0x00, 0x58, 0x49, 0x00, 0x00,
  0xc4, 0x48, 0x00, 0x00, 0x24, 0x48, 0x00, 0x00, 0x80, 0x47, 0x00, 0x00,
  0x20, 0x47, 0x00, 0x00, 0xc8, 0x46, 0x00, 0x00, 0x70, 0x46, 0x00, 0x00,
  0x20, 0x3e, 0x00, 0x00, 0x8c, 0x3c, 0x00, 0x00, 0x34, 0x0c, 0x00, 0x00,
  0xd4, 0x05, 0x00, 0x00, 0x2c, 0x05, 0x00, 0x00, 0x28, 0x04, 0x00, 0x00,
  0x10, 0x03, 0x00, 0x00, 0x7c, 0x02, 0x00, 0x00, 0xc8, 0x01, 0x00, 0x00,
  0x00, 0x01, 0x00, 0x00, 0x84, 0x00, 0x00, 0x00, 0x01, 0x00, 0x00, 0x00,
  0x00, 0x00, 0x00, 0x00, 0x01, 0x00, 0x00, 0x00, 0x13, 0x00, 0x00, 0x00,
  0x08, 0x00, 0x00, 0x00, 0x64, 0x05, 0x00, 0x00, 0xb8, 0x04, 0x00, 0x00,
  0x98, 0x03, 0x00, 0x00, 0x9c, 0x02, 0x00, 0x00, 0x14, 0x02, 0x00, 0x00,
  0x44, 0x01, 0x00, 0x00, 0x98, 0x00, 0x00, 0x00, 0x10, 0x00, 0x00, 0x00,
  0x04, 0x00, 0x00, 0x00, 0x6d, 0x61, 0x69, 0x6e, 0x00, 0x00, 0x00, 0x00,
  0x7e, 0xfb, 0xff, 0xff, 0x00, 0x00, 0x00, 0x09, 0x05, 0x00, 0x00, 0x00,
  0x1c, 0x00, 0x00, 0x00, 0x10, 0x00, 0x00, 0x00, 0x04, 0x00, 0x00, 0x00,
  0xee, 0xb6, 0xff, 0xff, 0x00, 0x00, 0x80, 0x3f, 0x01, 0x00, 0x00, 0x00,
  0x13, 0x00, 0x00, 0x00, 0x01, 0x00, 0x00, 0x00, 0x12, 0x00, 0x00, 0x00,
  0xd8, 0xfa, 0xff, 0xff, 0x19, 0x00, 0x00, 0x00, 0x00, 0x00, 0x00, 0x19,
  0x01, 0x00, 0x00, 0x00, 0xb4, 0xb6, 0xff, 0xff, 0x14, 0x00, 0x00, 0x00,
  0x14, 0x00, 0x00, 0x00, 0x24, 0x00, 0x00, 0x00, 0x30, 0x00, 0x00, 0x00,
  0x10, 0x00, 0x00, 0x00, 0x02, 0x00, 0x00, 0x00, 0x01, 0x00, 0x00, 0x00,
  0x05, 0x00, 0x00, 0x00, 0x02, 0x00, 0x00, 0x00, 0xff, 0xff, 0xff, 0xff,
  0x05, 0x00, 0x00, 0x00, 0x08, 0x00, 0x00, 0x00, 0x49, 0x64, 0x65, 0x6e,
  0x74, 0x69, 0x74, 0x79, 0x00, 0x00, 0x00, 0x00, 0x98, 0xb6, 0xff, 0xff,
  0x02, 0xfc, 0xff, 0xff, 0x00, 0x00, 0x00, 0x08, 0x04, 0x00, 0x00, 0x00,
  0x18, 0x00, 0x00, 0x00, 0x0c, 0x00, 0x00, 0x00, 0x04, 0x00, 0x00, 0x00,
  0xb4, 0xb6, 0xff, 0xff, 0x01, 0x00, 0x00, 0x00, 0x12, 0x00, 0x00, 0x00,
  0x03, 0x00, 0x00, 0x00, 0x11, 0x00, 0x00, 0x00, 0x09, 0x00, 0x00, 0x00,
  0x05, 0x00, 0x00, 0x00, 0x2c, 0xb7, 0xff, 0xff, 0x14, 0x00, 0x00, 0x00,
  0x13, 0x00, 0x00, 0x00, 0x24, 0x00, 0x00, 0x00, 0x50, 0x00, 0x00, 0x00,
  0x10, 0x00, 0x00, 0x00, 0x02, 0x00, 0x00, 0x00, 0x01, 0x00, 0x00, 0x00,
  0x05, 0x00, 0x00, 0x00, 0x02, 0x00, 0x00, 0x00, 0xff, 0xff, 0xff, 0xff,
  0x05, 0x00, 0x00, 0x00, 0x2a, 0x00, 0x00, 0x00, 0x6d, 0x6f, 0x64, 0x65,
  0x6c, 0x2f, 0x64, 0x65, 0x6e, 0x73, 0x65, 0x5f, 0x31, 0x2f, 0x4d, 0x61,
  0x74, 0x4d, 0x75, 0x6c, 0x3b, 0x6d, 0x6f, 0x64, 0x65, 0x6c, 0x2f, 0x64,
  0x65, 0x6e, 0x73, 0x65, 0x5f, 0x31, 0x2f, 0x42, 0x69, 0x61, 0x73, 0x41,
  0x64, 0x64, 0x00, 0x00, 0xf8, 0xb7, 0xff, 0xff, 0x00, 0x00, 0x0e, 0x00,
  0x1a, 0x00, 0x08, 0x00, 0x0c, 0x00, 0x10, 0x00, 0x07, 0x00, 0x14, 0x00,
  0x0e, 0x00, 0x00, 0x00, 0x00, 0x00, 0x00, 0x08, 0x04, 0x00, 0x00, 0x00,
  0x24, 0x00, 0x00, 0x00, 0x18, 0x00, 0x00, 0x00, 0x0c, 0x00, 0x00, 0x00,
  0x00, 0x00, 0x06, 0x00, 0x08, 0x00, 0x07, 0x00, 0x06, 0x00, 0x00, 0x00,
  0x00, 0x00, 0x00, 0x01, 0x01, 0x00, 0x00, 0x00, 0x11, 0x00, 0x00, 0x00,
  0x03, 0x00, 0x00, 0x00, 0x10, 0x00, 0x00, 0x00, 0x08, 0x00, 0x00, 0x00,
  0x04, 0x00, 0x00, 0x00, 0x14, 0xfc, 0xff, 0xff, 0x09, 0x00, 0x00, 0x00,
  0x00, 0x00, 0x00, 0x09, 0x01, 0x00, 0x00, 0x00, 0xf0, 0xb7, 0xff, 0xff,
  0x14, 0x00, 0x00, 0x00, 0x12, 0x00, 0x00, 0x00, 0x24, 0x00, 0x00, 0x00,
  0x5c, 0x00, 0x00, 0x00, 0x10, 0x00, 0x00, 0x00, 0x02, 0x00, 0x00, 0x00,
  0x01, 0x00, 0x00, 0x00, 0x10, 0x00, 0x00, 0x00, 0x02, 0x00, 0x00, 0x00,
  0xff, 0xff, 0xff, 0xff, 0x10, 0x00, 0x00, 0x00, 0x37, 0x00, 0x00, 0x00,
  0x6d, 0x6f, 0x64, 0x65, 0x6c, 0x2f, 0x64, 0x65, 0x6e, 0x73, 0x65, 0x2f,
  0x4d, 0x61, 0x74, 0x4d, 0x75, 0x6c, 0x3b, 0x6d, 0x6f, 0x64, 0x65, 0x6c,
  0x2f, 0x64, 0x65, 0x6e, 0x73, 0x65, 0x2f, 0x52, 0x65, 0x6c, 0x75, 0x3b,
  0x6d, 0x6f, 0x64, 0x65, 0x6c, 0x2f, 0x64, 0x65, 0x6e, 0x73, 0x65, 0x2f,
  0x42, 0x69, 0x61, 0x73, 0x41, 0x64, 0x64, 0x00, 0xc8, 0xb8, 0xff, 0xff,
  0x00, 0x00, 0x0a, 0x00, 0x10, 0x00, 0x04, 0x00, 0x08, 0x00, 0x0c, 0x00,
  0x0a, 0x00, 0x00, 0x00, 0x03, 0x00, 0x00, 0x00, 0x10, 0x00, 0x00, 0x00,
  0x04, 0x00, 0x00, 0x00, 0x01, 0x00, 0x00, 0x00, 0x10, 0x00, 0x00, 0x00,
  0x02, 0x00, 0x00, 0x00, 0x0f, 0x00, 0x00, 0x00, 0x06, 0x00, 0x00, 0x00,
  0xc4, 0xfc, 0xff, 0xff, 0x16, 0x00, 0x00, 0x00, 0x00, 0x00, 0x00, 0x16,
  0x01, 0x00, 0x00, 0x00, 0xa0, 0xb8, 0xff, 0xff, 0x14, 0x00, 0x00, 0x00,
  0x11, 0x00, 0x00, 0x00, 0x24, 0x00, 0x00, 0x00, 0x3c, 0x00, 0x00, 0x00,
  0x10, 0x00, 0x00, 0x00, 0x02, 0x00, 0x00, 0x00, 0x01, 0x00, 0x00, 0x00,
  0x20, 0x00, 0x00, 0x00, 0x02, 0x00, 0x00, 0x00, 0xff, 0xff, 0xff, 0xff,
  0x20, 0x00, 0x00, 0x00, 0x15, 0x00, 0x00, 0x00, 0x6d, 0x6f, 0x64, 0x65,
  0x6c, 0x2f, 0x66, 0x6c, 0x61, 0x74, 0x74, 0x65, 0x6e, 0x2f, 0x52, 0x65,
  0x73, 0x68, 0x61, 0x70, 0x65, 0x00, 0x00, 0x00, 0x90, 0xb8, 0xff, 0xff,
  0xfa, 0xfd, 0xff, 0xff, 0x00, 0x00, 0x00, 0x01, 0x02, 0x00, 0x00, 0x00,
  0x24, 0x00, 0x00, 0x00, 0x18, 0x00, 0x00, 0x00, 0x04, 0x00, 0x00, 0x00,
  0x08, 0xff, 0xff, 0xff, 0x01, 0x00, 0x00, 0x00, 0x01, 0x00, 0x00, 0x00,
  0x00, 0x00, 0x00, 0x01, 0x01, 0x00, 0x00, 0x00, 0x0f, 0x00, 0x00, 0x00,
  0x03, 0x00, 0x00, 0x00, 0x0e, 0x00, 0x00, 0x00, 0x0b, 0x00, 0x00, 0x00,
  0x03, 0x00, 0x00, 0x00, 0x30, 0xb9, 0xff, 0xff, 0x14, 0x00, 0x00, 0x00,
  0x10, 0x00, 0x00, 0x00, 0x34, 0x00, 0x00, 0x00, 0xa4, 0x00, 0x00, 0x00,
  0x18, 0x00, 0x00, 0x00, 0x04, 0x00, 0x00, 0x00, 0x01, 0x00, 0x00, 0x00,
  0x02, 0x00, 0x00, 0x00, 0x01, 0x00, 0x00, 0x00, 0x10, 0x00, 0x00, 0x00,
  0x04, 0x00, 0x00, 0x00, 0xff, 0xff, 0xff, 0xff, 0x02, 0x00, 0x00, 0x00,
  0x01, 0x00, 0x00, 0x00, 0x10, 0x00, 0x00, 0x00, 0x6f, 0x00, 0x00, 0x00,
  0x6d, 0x6f, 0x64, 0x65, 0x6c, 0x2f, 0x63, 0x6f, 0x6e, 0x76, 0x32, 0x64,
  0x5f, 0x31, 0x2f, 0x52, 0x65, 0x6c, 0x75, 0x3b, 0x6d, 0x6f, 0x64, 0x65,
  0x6c, 0x2f, 0x63, 0x6f, 0x6e, 0x76, 0x32, 0x64, 0x5f, 0x31, 0x2f, 0x42,
  0x69, 0x61, 0x73, 0x41, 0x64, 0x64, 0x3b, 0x6d, 0x6f, 0x64, 0x65, 0x6c,
  0x2f, 0x63, 0x6f, 0x6e, 0x76, 0x32, 0x64, 0x5f, 0x31, 0x2f, 0x43, 0x6f,
  0x6e, 0x76, 0x32, 0x44, 0x3b, 0x6d, 0x6f, 0x64, 0x65, 0x6c, 0x2f, 0x63,
  0x6f, 0x6e, 0x76, 0x32, 0x64, 0x5f, 0x31, 0x2f, 0x42, 0x69, 0x61, 0x73,
  0x41, 0x64, 0x64, 0x2f, 0x52, 0x65, 0x61, 0x64, 0x56, 0x61, 0x72, 0x69,
  0x61, 0x62, 0x6c, 0x65, 0x4f, 0x70, 0x2f, 0x72, 0x65, 0x73, 0x6f, 0x75,
  0x72, 0x63, 0x65, 0x00, 0x88, 0xb9, 0xff, 0xff, 0xf2, 0xfe, 0xff, 0xff,
  0x00, 0x00, 0x00, 0x01, 0x02, 0x00, 0x00, 0x00, 0x30, 0x00, 0x00, 0x00,
  0x24, 0x00, 0x00, 0x00, 0x10, 0x00, 0x00, 0x00, 0x0c, 0x00, 0x10, 0x00,
  0x00, 0x00, 0x04, 0x00, 0x08, 0x00, 0x0f, 0x00, 0x0c, 0x00, 0x00, 0x00,
  0x01, 0x00, 0x00, 0x00, 0x01, 0x00, 0x00, 0x00, 0x00, 0x00, 0x00, 0x01,
  0x01, 0x00, 0x00, 0x00, 0x0e, 0x00, 0x00, 0x00, 0x03, 0x00, 0x00, 0x00,
  0x0d, 0x00, 0x00, 0x00, 0x0a, 0x00, 0x00, 0x00, 0x02, 0x00, 0x00, 0x00,
  0x68, 0xfe, 0xff, 0xff, 0x03, 0x00, 0x00, 0x00, 0x00, 0x00, 0x00, 0x03,
  0x01, 0x00, 0x00, 0x00, 0x44, 0xba, 0xff, 0xff, 0x14, 0x00, 0x00, 0x00,
  0x0f, 0x00, 0x00, 0x00, 0x34, 0x00, 0x00, 0x00, 0x9c, 0x00, 0x00, 0x00,
  0x18, 0x00, 0x00, 0x00, 0x04, 0x00, 0x00, 0x00, 0x01, 0x00, 0x00, 0x00,
  0x02, 0x00, 0x00, 0x00, 0x01, 0x00, 0x00, 0x00, 0x08, 0x00, 0x00, 0x00,
  0x04, 0x00, 0x00, 0x00, 0xff, 0xff, 0xff, 0xff, 0x02, 0x00, 0x00, 0x00,
  0x01, 0x00, 0x00, 0x00, 0x08, 0x00, 0x00, 0x00, 0x67, 0x00, 0x00, 0x00,
  0x6d, 0x6f, 0x64, 0x65, 0x6c, 0x2f, 0x63, 0x6f, 0x6e, 0x76, 0x32, 0x64,
  0x2f, 0x52, 0x65, 0x6c, 0x75, 0x3b, 0x6d, 0x6f, 0x64, 0x65, 0x6c, 0x2f,
  0x63, 0x6f, 0x6e, 0x76, 0x32, 0x64, 0x2f, 0x42, 0x69, 0x61, 0x73, 0x41,
  0x64, 0x64, 0x3b, 0x6d, 0x6f, 0x64, 0x65, 0x6c, 0x2f, 0x63, 0x6f, 0x6e,
  0x76, 0x32, 0x64, 0x2f, 0x43, 0x6f, 0x6e, 0x76, 0x32, 0x44, 0x3b, 0x6d,
  0x6f, 0x64, 0x65, 0x6c, 0x2f, 0x63, 0x6f, 0x6e, 0x76, 0x32, 0x64, 0x2f,
  0x42, 0x69, 0x61, 0x73, 0x41, 0x64, 0x64, 0x2f, 0x52, 0x65, 0x61, 0x64,
  0x56, 0x61, 0x72, 0x69, 0x61, 0x62, 0x6c, 0x65, 0x4f, 0x70, 0x2f, 0x72,
  0x65, 0x73, 0x6f, 0x75, 0x72, 0x63, 0x65, 0x00, 0x5c, 0xbb, 0xff, 0xff,
  0x00, 0x00, 0x0e, 0x00, 0x18, 0x00, 0x08, 0x00, 0x0c, 0x00, 0x10, 0x00,
  0x07, 0x00, 0x14, 0x00, 0x0e, 0x00, 0x00, 0x00, 0x00, 0x00, 0x00, 0x34,
  0x01, 0x00, 0x00, 0x00, 0x18, 0x00, 0x00, 0x00, 0x0c, 0x00, 0x00, 0x00,
  0x04, 0x00, 0x00, 0x00, 0xc0, 0xba, 0xff, 0xff, 0x01, 0x00, 0x00, 0x00,
  0x0d, 0x00, 0x00, 0x00, 0x02, 0x00, 0x00, 0x00, 0x0c, 0x00, 0x00, 0x00,
  0x01, 0x00, 0x00, 0x00, 0x68, 0xff, 0xff, 0xff, 0x46, 0x00, 0x00, 0x00,
  0x00, 0x00, 0x00, 0x46, 0x01, 0x00, 0x00, 0x00, 0x44, 0xbb, 0xff, 0xff,
  0x14, 0x00, 0x00, 0x00, 0x0e, 0x00, 0x00, 0x00, 0x34, 0x00, 0x00, 0x00,
  0x48, 0x00, 0x00, 0x00, 0x18, 0x00, 0x00, 0x00, 0x04, 0x00, 0x00, 0x00,
  0x01, 0x00, 0x00, 0x00, 0x02, 0x00, 0x00, 0x00, 0x01, 0x00, 0x00, 0x00,
  0x80, 0x00, 0x00, 0x00, 0x04, 0x00, 0x00, 0x00, 0xff, 0xff, 0xff, 0xff,
  0x02, 0x00, 0x00, 0x00, 0x01, 0x00, 0x00, 0x00, 0x80, 0x00, 0x00, 0x00,
  0x10, 0x00, 0x00, 0x00, 0x6d, 0x6f, 0x64, 0x65, 0x6c, 0x2f, 0x45, 0x78,
  0x70, 0x61, 0x6e, 0x64, 0x44, 0x69, 0x6d, 0x73, 0x00, 0x00, 0x00, 0x00,
  0x08, 0xbc, 0xff, 0xff, 0x00, 0x00, 0x0a, 0x00, 0x0c, 0x00, 0x00, 0x00,
  0x04, 0x00, 0x08, 0x00, 0x0a, 0x00, 0x00, 0x00, 0x10, 0x00, 0x00, 0x00,
  0x04, 0x00, 0x00, 0x00, 0x01, 0x00, 0x00, 0x00, 0x0c, 0x00, 0x00, 0x00,
  0x02, 0x00, 0x00, 0x00, 0x00, 0x00, 0x00, 0x00, 0x07, 0x00, 0x00, 0x00,
  0x0c, 0x00, 0x10, 0x00, 0x0b, 0x00, 0x00, 0x00, 0x0c, 0x00, 0x04, 0x00,
  0x0c, 0x00, 0x00, 0x00, 0x27, 0x00, 0x00, 0x00, 0x00, 0x00, 0x00, 0x27,
  0x01, 0x00, 0x00, 0x00, 0xe8, 0xbb, 0xff, 0xff, 0x14, 0x00, 0x00, 0x00,
  0x0d, 0x00, 0x00, 0x00, 0x2c, 0x00, 0x00, 0x00, 0x3c, 0x00, 0x00, 0x00,
  0x14, 0x00, 0x00, 0x00, 0x03, 0x00, 0x00, 0x00, 0x01, 0x00, 0x00, 0x00,
  0x02, 0x00, 0x00, 0x00, 0x80, 0x00, 0x00, 0x00, 0x03, 0x00, 0x00, 0x00,
  0xff, 0xff, 0xff, 0xff, 0x02, 0x00, 0x00, 0x00, 0x80, 0x00, 0x00, 0x00,
  0x0f, 0x00, 0x00, 0x00, 0x6d, 0x6f, 0x64, 0x65, 0x6c, 0x2f, 0x74, 0x72,
  0x61, 0x6e, 0x73, 0x70, 0x6f, 0x73, 0x65, 0x00, 0xd8, 0xbb, 0xff, 0xff,
  0x9a, 0xbc, 0xff, 0xff, 0x04, 0x00, 0x00, 0x00, 0x00, 0x06, 0x00, 0x00,
  0xe0, 0xf3, 0xd7, 0x3c, 0x80, 0xfa, 0xe3, 0xbd, 0xc4, 0x06, 0xcb, 0x3d,
  0xc0, 0x99, 0xb3, 0xbc, 0xec, 0xf8, 0x26, 0xbe, 0x74, 0xe6, 0x8e, 0x3e,
  0x25, 0x6e, 0x16, 0xbe, 0xae, 0x4c, 0x33, 0x3e, 0x98, 0x6b, 0x6e, 0x3d,
  0x43, 0x31, 0x16, 0x3e, 0xb9, 0xa8, 0x9e, 0x3e, 0xb3, 0x90, 0x0a, 0xbe,
  0x52, 0x82, 0xee, 0xbd, 0xf0, 0x5b, 0x82, 0x3e, 0x9a, 0x32, 0x0a, 0x3e,
  0xe2, 0x7d, 0x1a, 0xbe, 0xa8, 0x9e, 0x18, 0xbd, 0x6c, 0x3e, 0x26, 0x3e,
  0x3e, 0x7f, 0xa2, 0xbd, 0xa6, 0x6b, 0x55, 0x3e, 0xd6, 0xa3, 0x12, 0x3e,
  0xcf, 0x16, 0x69, 0xbe, 0xb8, 0x78, 0x66, 0x3d, 0x0e, 0xec, 0x54, 0x3e,
  0x8a, 0xb6, 0x82, 0xbd, 0x48, 0xe4, 0xf5, 0xbd, 0x20, 0x1c, 0x0b, 0xbd,
  0xc0, 0xd6, 0xd0, 0x3d, 0x00, 0x73, 0x96, 0x3d, 0x7c, 0x91, 0x5d, 0xbd,
  0x24, 0x8e, 0x62, 0x3e, 0x18, 0x1a, 0x92, 0x3e, 0xfc, 0x56, 0xe8, 0x3e,
  0xcd, 0x06, 0xa3, 0x3d, 0xcf, 0x8d, 0xa0, 0x3e, 0xa4, 0x30, 0x76, 0xbe,
  0xc2, 0xcd, 0x66, 0xbe, 0x2c, 0x31, 0x1d, 0x3e, 0x01, 0x91, 0x17, 0x3e,
  0xf0, 0xf0, 0xe2, 0x3e, 0xe8, 0x3a, 0xe8, 0x3d, 0x16, 0x65, 0x81, 0x3e,
  0x00, 0x40, 0x19, 0x3a, 0xbe, 0x37, 0x57, 0x3e, 0x64, 0x83, 0x3d, 0x3e,
  0x12, 0x8a, 0x3f, 0xbe, 0xc4, 0xe2, 0xf3, 0xbd, 0x88, 0x78, 0x29, 0x3e,
  0x0a, 0x87, 0x80, 0x3e, 0xfc, 0x61, 0x5e, 0xbd, 0x26, 0x90, 0xbc, 0xbd,
  0x98, 0xf2, 0x14, 0x3d, 0x88, 0x08, 0x7a, 0xbe, 0xf8, 0xc6, 0x40, 0x3d,
  0x64, 0x01, 0x31, 0xbe, 0x00, 0x35, 0xd8, 0xbc, 0x1a, 0x79, 0x96, 0xbd,
  0xf0, 0x8e, 0x62, 0xbe, 0x36, 0x01, 0x3a, 0xbd, 0xe1, 0x87, 0xc9, 0x3e,
  0x7a, 0xb5, 0x5d, 0x3e, 0x73, 0x5e, 0x91, 0x3e, 0x83, 0x8f, 0x89, 0x3c,
  0xa3, 0xd5, 0x83, 0xbd, 0xe0, 0x22, 0x01, 0x3e, 0x9e, 0x1f, 0x38, 0x3e,
  0x10, 0x07, 0x4c, 0x3d, 0x90, 0xa4, 0x8b, 0x3e, 0xf0, 0xff, 0x7d, 0x3d,
  0xc6, 0x28, 0x88, 0x3e, 0xa0, 0x3e, 0xe5, 0x3c, 0x20, 0x39, 0x10, 0xbd,
  0x00, 0xea, 0x88, 0xba, 0x0c, 0x98, 0x85, 0x3e, 0xc0, 0xf4, 0x28, 0xbc,
  0x5a, 0x05, 0x93, 0xbd, 0x0a, 0x92, 0x55, 0x3e, 0xc8, 0x91, 0x81, 0xbe,
  0x58, 0xbd, 0x3e, 0xbe, 0xef, 0x52, 0x29, 0xbe, 0xb4, 0x95, 0x48, 0x3d,
  0xfe, 0x07, 0x2e, 0xbd, 0x30, 0xf3, 0x91, 0xbe, 0xd0, 0x83, 0x2f, 0x3d,
  0xa0, 0xb0, 0x07, 0x3e, 0x9f, 0x5f, 0xc0, 0x3d, 0x38, 0x9c, 0xd2, 0x3d,
  0x6b, 0x26, 0x7d, 0xbd, 0x28, 0xda, 0xbe, 0x3d, 0x6a, 0x75, 0x26, 0x3e,
  0xcc, 0x48, 0x78, 0x3e, 0x82, 0x84, 0x22, 0xbe, 0xd0, 0xc1, 0x5f, 0xbd,
  0x12, 0xb9, 0x84, 0xbe, 0x54, 0xd7, 0x91, 0xbd, 0x2c, 0x84, 0x86, 0x3d,
  0xb4, 0x0a, 0x4f, 0xbe, 0xe8, 0x5f, 0xab, 0x3d, 0x00, 0x40, 0x4d, 0x3e,
  0xa2, 0x62, 0x2e, 0xbe, 0x45, 0xd3, 0x2b, 0xbe, 0x7c, 0x56, 0x56, 0xbe,
  0x3e, 0xe2, 0x81, 0xbe, 0x4e, 0x1b, 0x56, 0xbe, 0x86, 0x25, 0x33, 0x3e,
  0xb3, 0x60, 0xa7, 0xbe, 0x00, 0x2b, 0xfa, 0xbd, 0x34, 0x3b, 0x4e, 0x3e,
  0x3f, 0x8b, 0x3f, 0x3c, 0xf3, 0x11, 0xb3, 0x3e, 0xb6, 0x44, 0x6a, 0x3e,
  0xb2, 0xbc, 0x7d, 0xbe, 0x1c, 0x11, 0xa2, 0x3d, 0x32, 0x66, 0x81, 0xbd,
  0xf8, 0x1b, 0x85, 0x3e, 0xa8, 0x19, 0x47, 0x3e, 0xa8, 0xfc, 0x42, 0x3e,
  0xfa, 0xd3, 0xb2, 0xbd, 0x9c, 0x40, 0xbc, 0x3d, 0xa2, 0x0a, 0x38, 0xbe,
  0x40, 0x2c, 0xc6, 0xbb, 0x44, 0xc1, 0x47, 0x3e, 0x5c, 0x16, 0x71, 0x3e,
  0xb7, 0x99, 0x85, 0xbe, 0x68, 0xcf, 0x5d, 0x3e, 0xf0, 0x23, 0x89, 0x3e,
  0x6c, 0x11, 0x60, 0x3e, 0x8a, 0xf7, 0x4f, 0x3e, 0x1f, 0xe4, 0x37, 0xbe,
  0xb7, 0x87, 0x6e, 0x3e, 0x6d, 0xb0, 0x3f, 0x3e, 0x9f, 0xd9, 0xa0, 0xbd,
  0xd4, 0x69, 0x88, 0x3d, 0x5b, 0x71, 0x9f, 0x3e, 0xd2, 0x4f, 0xd8, 0xb8,
  0x1a, 0x66, 0x38, 0x3e, 0xa9, 0x6d, 0x63, 0xbe, 0xa6, 0x89, 0x05, 0x3e,
  0x00, 0xd0, 0xb5, 0xba, 0x86, 0xcd, 0x85, 0x3e, 0x6a, 0x48, 0x82, 0x3e,
  0x54, 0x36, 0xd1, 0x3d, 0x50, 0xa6, 0x12, 0x3e, 0x40, 0x71, 0x3f, 0x3d,
  0xa0, 0x05, 0x6f, 0xbc, 0x70, 0x88, 0xf0, 0x3c, 0xc0, 0x93, 0x00, 0x3d,
  0xf2, 0xba, 0xee, 0xbd, 0x50, 0x75, 0x84, 0x3e, 0x60, 0x56, 0x0a, 0xbc,
  0x60, 0xdb, 0xef, 0x3c, 0x73, 0xd2, 0x92, 0xbe, 0x18, 0x98, 0x85, 0x3e,
  0x62, 0x7c, 0x9a, 0xba, 0x6d, 0x2a, 0xdb, 0x3e, 0x47, 0x4a, 0x29, 0x3e,
  0x87, 0x5c, 0x0e, 0xbe, 0xfc, 0xa9, 0xb9, 0x3c, 0xb7, 0xb1, 0x3f, 0xbe,
  0x9a, 0x8f, 0xbb, 0x3e, 0xf6, 0xb9, 0xe0, 0xbd, 0xa4, 0xeb, 0x3f, 0xbe,
  0xd0, 0xf5, 0x9c, 0xbd, 0xba, 0xcc, 0x97, 0xbd, 0x60, 0xc5, 0xfe, 0x3c,
  0x70, 0x89, 0xa7, 0xbd, 0x66, 0x67, 0x4a, 0x3e, 0x80, 0x46, 0x9f, 0xbc,
  0xf8, 0x5f, 0x80, 0xbe, 0xe8, 0x9e, 0xa9, 0x3d, 0xb8, 0x04, 0x70, 0xbe,
  0x8a, 0x90, 0x34, 0xbe, 0x4d, 0xb6, 0x00, 0xbe, 0xf0, 0x3f, 0x14, 0xbe,
  0x00, 0x35, 0xc4, 0xbb, 0x3c, 0xa6, 0xa3, 0x3d, 0x9a, 0xe5, 0x28, 0x3e,
  0x99, 0x3b, 0x44, 0xbe, 0xcc, 0x1f, 0x2b, 0x3e, 0x98, 0xff, 0x0d, 0x3d,
  0x73, 0xe2, 0x36, 0x3b, 0x3a, 0x47, 0x8e, 0xbd, 0x23, 0x2d, 0xa4, 0x3e,
  0x41, 0x18, 0xb3, 0x3e, 0xfe, 0x8c, 0x5d, 0xbe, 0x88, 0xf1, 0xe6, 0x3d,
  0x44, 0xd7, 0x23, 0x3e, 0x96, 0x6b, 0xe2, 0xbd, 0xac, 0x5c, 0xb5, 0x3d,
  0x79, 0x5c, 0x85, 0xbe, 0x58, 0xdd, 0x6b, 0x3e, 0x1c, 0x41, 0x7a, 0x3e,
  0x18, 0x04, 0x2c, 0x3e, 0x2c, 0x15, 0x88, 0xbd, 0xce, 0x80, 0x8e, 0xbe,
  0xa1, 0x35, 0x22, 0xbe, 0x50, 0x2e, 0x9b, 0x3c, 0x40, 0x4c, 0x85, 0x3e,
  0x10, 0x4b, 0x7e, 0xbd, 0xec, 0xe4, 0x33, 0xbd, 0x67, 0x9e, 0x7d, 0xbe,
  0x81, 0x1f, 0x80, 0x3e, 0x1f, 0x74, 0x2b, 0x3c, 0x91, 0x9b, 0xd7, 0xbd,
  0x03, 0x9f, 0x7b, 0xbc, 0xa9, 0x7b, 0x93, 0xbe, 0x62, 0xd0, 0xb3, 0xbd,
  0xe5, 0x4d, 0x83, 0xbe, 0x1e, 0x49, 0x25, 0x3e, 0xd6, 0xfa, 0x5d, 0xbe,
  0x68, 0x10, 0xcf, 0xbd, 0x72, 0x02, 0x58, 0x3e, 0xca, 0x4d, 0xf2, 0xbd,
  0x60, 0x09, 0x06, 0xbd, 0x54, 0xfc, 0x36, 0xbd, 0x48, 0x9a, 0x18, 0x3e,
  0xcc, 0xa0, 0x20, 0xbe, 0x80, 0x79, 0xd6, 0xbb, 0x94, 0xcf, 0x00, 0x3e,
  0x4a, 0xc0, 0x44, 0x3e, 0x00, 0x21, 0xb1, 0x3b, 0x60, 0x7d, 0x9f, 0x3c,
  0x60, 0x2e, 0x94, 0x3c, 0xf1, 0x0c, 0x08, 0xbe, 0x77, 0x5a, 0x6f, 0x3e,
  0xf8, 0x61, 0x99, 0xbe, 0xac, 0x29, 0x69, 0xbe, 0x1c, 0x94, 0x4b, 0x3e,
  0xdb, 0xaa, 0x72, 0x3e, 0x0b, 0xd5, 0x2a, 0x3e, 0x5f, 0x32, 0xa4, 0x3e,
  0x8b, 0xcb, 0x48, 0x3c, 0xb0, 0x2a, 0x08, 0x3d, 0x75, 0xf1, 0x8b, 0xbe,
  0x54, 0x6d, 0x6e, 0xbd, 0x70, 0x42, 0x71, 0x3e, 0x12, 0x3a, 0xa6, 0xbd,
  0x90, 0xd6, 0x63, 0x3e, 0x3e, 0xa3, 0xaf, 0xbd, 0x58, 0xbb, 0x4c, 0x3d,
  0xfe, 0xcb, 0xef, 0xbd, 0xe8, 0xaf, 0x08, 0x3d, 0xe0, 0x6e, 0xce, 0x3c,
  0xc2, 0x11, 0x37, 0x3e, 0x04, 0xe7, 0x1c, 0x3e, 0x37, 0x18, 0x8d, 0xbe,
  0xd0, 0xa7, 0xad, 0xbc, 0x90, 0x31, 0x2c, 0x3d, 0x0d, 0xc5, 0x88, 0x3e,
  0xc5, 0xf6, 0x25, 0x3d, 0x60, 0x8c, 0xb9, 0x3e, 0xd0, 0xd9, 0x9c, 0xbe,
  0x49, 0x89, 0x8f, 0xbe, 0x31, 0xde, 0x2d, 0x3e, 0x6c, 0x04, 0x5a, 0xbc,
  0xcb, 0x0b, 0x1b, 0xbc, 0xbe, 0x5f, 0x56, 0xbe, 0x00, 0x14, 0xe9, 0xba,
  0xe6, 0x9e, 0x8a, 0xbe, 0xf6, 0x38, 0x32, 0x3e, 0x68, 0x75, 0x69, 0x3e,
  0x36, 0x6e, 0x71, 0xbe, 0xe0, 0x29, 0x82, 0xbd, 0x1a, 0x54, 0xb6, 0xbd,
  0xe4, 0xa7, 0x5b, 0xbd, 0x64, 0x1b, 0xeb, 0xbd, 0x3f, 0xab, 0x6f, 0xbe,
  0x62, 0x1e, 0x4b, 0x3e, 0xf8, 0xea, 0xbe, 0x3d, 0x9c, 0xbd, 0x82, 0xbe,
  0xf4, 0xe7, 0x52, 0xbe, 0x29, 0xe8, 0x74, 0xbe, 0xe1, 0x09, 0x16, 0xbc,
  0xb1, 0xb0, 0xdf, 0x3c, 0x5e, 0xe9, 0xa3, 0xbd, 0xad, 0xcb, 0xf7, 0x3e,
  0xaa, 0x75, 0x22, 0x3e, 0x70, 0x68, 0xad, 0x3d, 0x60, 0x3e, 0x64, 0x3e,
  0xf0, 0x8c, 0x85, 0xbd, 0x90, 0x27, 0x4b, 0x3d, 0x20, 0x07, 0x87, 0xbc,
  0x07, 0x97, 0x92, 0xbe, 0x5a, 0xbd, 0x2d, 0x3e, 0xa0, 0x59, 0x62, 0x3d,
  0xb4, 0x35, 0xbf, 0xbd, 0xfc, 0x3c, 0x4c, 0xbe, 0xd0, 0x44, 0xc8, 0xbd,
  0x52, 0xae, 0x44, 0x3e, 0x4e, 0x74, 0x51, 0xbe, 0x30, 0x27, 0x37, 0xbd,
  0x4b, 0xb6, 0x0f, 0xbe, 0x96, 0x21, 0x3c, 0xbe, 0xac, 0x2d, 0x24, 0x3e,
  0xb0, 0x63, 0x11, 0xbd, 0xc8, 0x4c, 0xf4, 0xbd, 0x95, 0x2e, 0x99, 0xbe,
  0x9c, 0x62, 0x71, 0xbe, 0x99, 0x01, 0x55, 0xbd, 0xb2, 0x7c, 0xa5, 0x3e,
  0xc0, 0xdb, 0x81, 0x3e, 0xb9, 0x6d, 0x48, 0xbe, 0xe5, 0x77, 0x34, 0x3d,
  0xfe, 0xa6, 0xd9, 0xba, 0x80, 0x0e, 0x1f, 0x3c, 0x5c, 0x38, 0x87, 0xbe,
  0x36, 0x7c, 0x38, 0x3e, 0x40, 0x94, 0xf3, 0x3d, 0x30, 0x70, 0xc3, 0x3c,
  0x40, 0xa8, 0xe9, 0xbb, 0x40, 0x8e, 0x2a, 0xbd, 0xe5, 0x93, 0x67, 0xbe,
  0xc2, 0xf2, 0x31, 0x3e, 0x36, 0xbd, 0x07, 0x3e, 0x40, 0xe1, 0xef, 0xbd,
  0x60, 0x20, 0x31, 0xbd, 0x06, 0x73, 0x03, 0x3e, 0x86, 0x0c, 0x00, 0xbe,
  0x15, 0x15, 0x57, 0xbe, 0xc4, 0xb2, 0x6b, 0x3e, 0x62, 0xbd, 0xba, 0x3d,
  0x5b, 0x91, 0x06, 0x3e, 0x4a, 0x31, 0xc6, 0x3e, 0xff, 0x29, 0x1f, 0xbc,
  0x48, 0x46, 0xcd, 0xbd, 0x5a, 0xc9, 0xc8, 0x3e, 0xb2, 0xc1, 0x98, 0xbd,
  0x9c, 0xe0, 0x01, 0xbe, 0x6c, 0xca, 0x25, 0x3e, 0x20, 0x4b, 0x1b, 0x3d,
  0xe8, 0x7f, 0x7c, 0x3e, 0x6d, 0x42, 0x10, 0xbe, 0x5b, 0xa6, 0x23, 0xbe,
  0x5c, 0xda, 0xde, 0xbd, 0xd8, 0x42, 0x8f, 0x3d, 0x14, 0x02, 0xd1, 0x3d,
  0x20, 0x2d, 0x9f, 0xbd, 0x0e, 0x65, 0x01, 0x3e, 0x14, 0xee, 0x45, 0x3e,
  0x70, 0xc2, 0xbe, 0x3c, 0xec, 0x7b, 0x5f, 0x3e, 0x34, 0x34, 0xb6, 0xbd,
  0xdc, 0x7c, 0x88, 0xbe, 0x40, 0xbf, 0x9b, 0x3b, 0x2f, 0x8a, 0xc9, 0x3d,
  0x10, 0xa9, 0xc2, 0xbe, 0x82, 0x33, 0x8f, 0x3e, 0x16, 0x34, 0x84, 0xbe,
  0x7c, 0x88, 0xc3, 0xbc, 0x44, 0x94, 0x19, 0xbd, 0xed, 0xe2, 0xf4, 0xbd,
  0xff, 0x96, 0xc8, 0x3e, 0x44, 0xc1, 0xc4, 0x3d, 0xb4, 0x8a, 0x40, 0xbd,
  0xfc, 0x54, 0x20, 0xbe, 0xf2, 0x0c, 0x59, 0xbe, 0x49, 0x7f, 0x2d, 0xbe,
  0x98, 0xad, 0x31, 0x3d, 0x60, 0x1c, 0x4a, 0xbc, 0x84, 0x32, 0xeb, 0x3d,
  0xda, 0x1a, 0x83, 0xbd, 0x0a, 0x8f, 0xcc, 0xbd, 0x1a, 0x15, 0x0c, 0x3e,
  0xec, 0x8c, 0x3d, 0x3e, 0x8e, 0x60, 0x2a, 0xbe, 0xfc, 0x07, 0x59, 0xbe,
  0x30, 0xed, 0xdb, 0x3c, 0x4c, 0x08, 0x81, 0x3d, 0x82, 0x40, 0xdf, 0xbd,
  0xe9, 0xf7, 0xc1, 0xbe, 0x09, 0xcc, 0xa5, 0x3e, 0x93, 0x87, 0xc5, 0x3d,
  0xe3, 0x7c, 0x84, 0x3e, 0x31, 0x84, 0xe1, 0x3d, 0xd5, 0x9c, 0x90, 0x3e,
  0x29, 0x5c, 0x2f, 0x3e, 0x98, 0xa8, 0x53, 0xbe, 0xd6, 0xa2, 0x92, 0x3e,
  0x76, 0x4e, 0x40, 0x3e, 0x21, 0x60, 0x18, 0xbe, 0xde, 0xb8, 0x6b, 0xbe,
  0xfa, 0x78, 0x05, 0xbe, 0x60, 0xfe, 0x63, 0xbe, 0xa9, 0xf6, 0x04, 0xbe,
  0x0e, 0xc3, 0xff, 0xff, 0x10, 0x00, 0x00, 0x00, 0x0c, 0x00, 0x00, 0x00,
  0x1c, 0x00, 0x00, 0x00, 0x34, 0x00, 0x00, 0x00, 0x04, 0x00, 0x00, 0x00,
  0x10, 0x00, 0x00, 0x00, 0x01, 0x00, 0x00, 0x00, 0x03, 0x00, 0x00, 0x00,
  0x08, 0x00, 0x00, 0x00, 0x15, 0x00, 0x00, 0x00, 0x6d, 0x6f, 0x64, 0x65,
  0x6c, 0x2f, 0x63, 0x6f, 0x6e, 0x76, 0x32, 0x64, 0x5f, 0x31, 0x2f, 0x43,
  0x6f, 0x6e, 0x76, 0x32, 0x44, 0x00, 0x00, 0x00, 0x2c, 0xc2, 0xff, 0xff,
  0xee, 0xc2, 0xff, 0xff, 0x04, 0x00, 0x00, 0x00, 0x00, 0x30, 0x00, 0x00,
  0xd0, 0xc1, 0xa1, 0xbb, 0x48, 0xff, 0x41, 0xbc, 0xca, 0xcf, 0xbc, 0xbd,
  0x48, 0x6d, 0xe7, 0x3d, 0xb4, 0xc6, 0x70, 0x3d, 0x18, 0x1c, 0x70, 0xbc,
  0xb8, 0x8f, 0xf2, 0x3c, 0x2c, 0x78, 0xa9, 0xbc, 0x18, 0x2c, 0xc7, 0x3d,
  0xc0, 0xd1, 0xcf, 0x3d, 0xe2, 0x00, 0x89, 0x3d, 0x80, 0x3b, 0xb2, 0x3c,
  0xfc, 0x60, 0x30, 0x3d, 0xa6, 0xea, 0xf2, 0xbd, 0x88, 0x37, 0x07, 0xbd,
  0x98, 0xed, 0x3e, 0x3d, 0x86, 0x05, 0xb5, 0x3d, 0x40, 0x0f, 0x31, 0x3c,
  0xa8, 0x91, 0x65, 0xbc, 0x71, 0x8d, 0xcc, 0xbd, 0x60, 0x71, 0x59, 0xbb,
  0x80, 0xc6, 0x2c, 0x3c, 0x8a, 0x09, 0xe0, 0x3d, 0x00, 0xdc, 0x59, 0xb9,
  0xaa, 0x85, 0x8e, 0x3d, 0x92, 0x11, 0xb2, 0xbd, 0xd4, 0x6b, 0xc1, 0xbd,
  0xd8, 0x5a, 0xe5, 0xbd, 0xf0, 0x25, 0x4c, 0xbc, 0x54, 0xb7, 0xdf, 0xbc,
  0xf7, 0xfe, 0xed, 0xbd, 0xf2, 0xaf, 0x32, 0xbd, 0x7e, 0xaa, 0xc2, 0xbd,
  0x88, 0x8a, 0x44, 0x3d, 0x78, 0x18, 0x74, 0xbc, 0x68, 0xb4, 0x52, 0x3d,
  0x00, 0x2c, 0x51, 0x3a, 0x80, 0x48, 0xb8, 0x3c, 0x8e, 0x27, 0x8b, 0x3d,
  0x38, 0x54, 0x58, 0xbd, 0xc0, 0x5a, 0x5a, 0xbc, 0x74, 0x9a, 0x7b, 0x3d,
  0x96, 0x65, 0xcd, 0xbd, 0xbc, 0x6b, 0xdc, 0x3d, 0x5c, 0x0d, 0x8b, 0x3d,
  0x60, 0xd7, 0x35, 0xbd, 0x40, 0xf1, 0xad, 0x3b, 0xe4, 0x43, 0x5e, 0xbd,
  0x8c, 0x41, 0xe9, 0x3d, 0x16, 0xc6, 0x81, 0x3d, 0xa0, 0x18, 0xff, 0xbb,
  0xe0, 0x39, 0x09, 0xbb, 0x60, 0xdd, 0x86, 0xbc, 0x16, 0xd8, 0x01, 0xbd,
  0x36, 0xb3, 0xe6, 0xbd, 0x6a, 0x38, 0xe6, 0x3d, 0xc5, 0x43, 0xd1, 0xbd,
  0x5f, 0x3f, 0xa8, 0xbd, 0x0a, 0x9b, 0x92, 0xbd, 0xe0, 0x67, 0xa3, 0x3b,
  0x3c, 0x48, 0x4c, 0x3d, 0x20, 0x74, 0xe6, 0x3d, 0x20, 0xd5, 0xfd, 0xbb,
  0xc2, 0xe7, 0x1a, 0xbd, 0xe8, 0x80, 0x7b, 0x3d, 0xe4, 0x03, 0x4d, 0xbd,
  0xb9, 0x1d, 0x8e, 0xbd, 0xca, 0xa6, 0xa2, 0xbd, 0x58, 0xa9, 0x97, 0xbd,
  0x18, 0x28, 0x2f, 0xbc, 0x00, 0x4b, 0x99, 0xbb, 0x58, 0x30, 0x99, 0xbd,
  0x8c, 0xbb, 0x94, 0x3d, 0x69, 0xe3, 0xdb, 0xbd, 0xd2, 0x00, 0x85, 0xbd,
  0xe8, 0x06, 0x21, 0x3d, 0x36, 0x37, 0x2e, 0xbd, 0x74, 0x66, 0x9b, 0xbc,
  0xe0, 0x2c, 0xf9, 0xbc, 0xd4, 0xd3, 0xcb, 0x3d, 0x20, 0xd1, 0x1a, 0xbc,
  0x62, 0x8f, 0xd0, 0xbd, 0x98, 0x57, 0xa9, 0x3d, 0xa4, 0x4c, 0x60, 0xbd,
  0x30, 0xcc, 0x8b, 0xbc, 0x12, 0x14, 0xb6, 0x3d, 0xcc, 0x13, 0x9d, 0x3d,
  0x20, 0x09, 0xc2, 0x3c, 0x18, 0x75, 0xf4, 0x3c, 0xd8, 0x97, 0x12, 0x3d,
  0x0c, 0x2d, 0xc8, 0xbd, 0x52, 0xdf, 0x4d, 0xbd, 0x48, 0x98, 0x1c, 0x3d,
  0x4e, 0xc7, 0x99, 0x3d, 0x43, 0xe1, 0xd2, 0xbd, 0xf0, 0xfa, 0x2f, 0x3d,
  0x0c, 0xf4, 0x92, 0x3d, 0xd0, 0x9c, 0x1c, 0x3c, 0xea, 0xc9, 0xb2, 0x3d,
  0x63, 0xdf, 0xc0, 0xbd, 0x9a, 0xb9, 0xb7, 0x3d, 0x1f, 0xd7, 0xde, 0xbd,
  0xae, 0xfa, 0xc6, 0xbd, 0xb4, 0x83, 0xa9, 0x3d, 0x3a, 0x7d, 0x94, 0x3d,
  0x20, 0xbb, 0xea, 0x3b, 0xd2, 0x18, 0xeb, 0x3d, 0xe0, 0x7f, 0x30, 0xbb,
  0x94, 0xcd, 0x27, 0x3d, 0x60, 0x70, 0x31, 0x3c, 0xda, 0xa5, 0x80, 0xbd,
  0xa0, 0xa2, 0xb4, 0x3b, 0xa0, 0x0d, 0x3a, 0xbc, 0xe8, 0x05, 0x6b, 0xbd,
  0xa0, 0x1d, 0xe0, 0xbc, 0xdf, 0xe2, 0xd5, 0xbd, 0xd0, 0x19, 0xcd, 0xbc,
  0xdb, 0x33, 0xbf, 0xbd, 0x40, 0xe4, 0x82, 0x3c, 0xf4, 0xf6, 0xc6, 0xbd,
  0x11, 0x5f, 0xc9, 0xbd, 0x11, 0x9b, 0xcd, 0xbd, 0xca, 0xd1, 0x5a, 0xbd,
  0x1c, 0x82, 0x84, 0xbd, 0xc8, 0x9a, 0xec, 0xbc, 0xad, 0xfc, 0x89, 0xbd,
  0xc3, 0x24, 0x9d, 0xbd, 0x98, 0x2d, 0xcc, 0xbd, 0xd4, 0x7e, 0x86, 0xbd,
  0x04, 0xb4, 0xaf, 0x3d, 0x29, 0x72, 0xa8, 0x3c, 0x34, 0x76, 0xc2, 0x3a,
  0x8e, 0x68, 0xaf, 0x3d, 0x1e, 0x07, 0x7b, 0xbd, 0x0b, 0x24, 0x9c, 0xbd,
  0x9b, 0xbf, 0x8b, 0xbd, 0x4a, 0xb4, 0x19, 0xbc, 0xf1, 0xb9, 0x1b, 0xbe,
  0xdd, 0x3d, 0x43, 0x3d, 0xad, 0xc7, 0xdf, 0xbd, 0x23, 0x1e, 0x0b, 0xbe,
  0x66, 0x48, 0x42, 0xbe, 0xa2, 0x72, 0x51, 0xbe, 0xee, 0xaf, 0x25, 0xbe,
  0x41, 0x25, 0xe1, 0x3c, 0xe4, 0xfc, 0x3c, 0x3d, 0x59, 0xff, 0x09, 0x3d,
  0x8a, 0x87, 0xe1, 0xbd, 0x9c, 0x01, 0x92, 0x3c, 0xc3, 0x77, 0x39, 0x3d,
  0xa1, 0x7c, 0x4a, 0x3e, 0x70, 0x48, 0x5e, 0x3e, 0xa3, 0x68, 0x82, 0x3e,
  0x72, 0xb1, 0x4c, 0x3d, 0x0e, 0xee, 0xb9, 0x3d, 0xe4, 0xa0, 0x97, 0x3e,
  0x33, 0xea, 0x7e, 0x3e, 0x5b, 0x14, 0x67, 0x3e, 0x9b, 0xe0, 0x59, 0x3e,
  0xdc, 0x22, 0xcc, 0x3d, 0xc5, 0xb5, 0xb9, 0x3d, 0x10, 0xdf, 0x32, 0x3e,
  0x00, 0x59, 0x5d, 0x3e, 0xe1, 0x69, 0x95, 0x3e, 0x10, 0x9b, 0x3d, 0x3e,
  0xe5, 0x4d, 0x3b, 0x3e, 0x2f, 0x12, 0x57, 0x3e, 0x54, 0x5b, 0x42, 0x3e,
  0x62, 0xd1, 0xc6, 0x3d, 0x5f, 0xab, 0x7f, 0x3e, 0xa0, 0xf0, 0x0d, 0x3d,
  0xae, 0x60, 0x63, 0x3e, 0xc1, 0x9e, 0xeb, 0x3c, 0xc6, 0xaf, 0x53, 0x3e,
  0x21, 0x95, 0x39, 0x3e, 0xd5, 0x77, 0x72, 0xbd, 0x74, 0x0c, 0xa3, 0x3d,
  0x81, 0x6f, 0xae, 0x3d, 0x83, 0xf7, 0x3e, 0xbd, 0xaf, 0xf5, 0x02, 0xb9,
  0x8e, 0x3f, 0x3d, 0xbd, 0x41, 0x15, 0x8a, 0xbd, 0x4c, 0x92, 0xef, 0x3c,
  0xdc, 0x07, 0xfe, 0x3d, 0xbc, 0x19, 0x13, 0x3e, 0xc5, 0x4e, 0x7b, 0x3d,
  0x67, 0xb9, 0xdc, 0x3d, 0xbd, 0xe0, 0xec, 0xbc, 0x97, 0x30, 0x47, 0x3d,
  0xc2, 0x5a, 0x1c, 0x3e, 0xb1, 0x8c, 0xa1, 0x3d, 0x86, 0x6c, 0x21, 0x3d,
  0x7f, 0x4c, 0xf9, 0x3d, 0xc2, 0x99, 0xfc, 0x3d, 0x57, 0x5e, 0x03, 0x3e,
  0x89, 0x71, 0x29, 0x3e, 0xb0, 0x43, 0x25, 0x3e, 0x1e, 0xb8, 0x34, 0x3e,
  0xe2, 0xcc, 0x8a, 0xbc, 0xad, 0x2c, 0x62, 0x3d, 0xd1, 0xeb, 0xfc, 0x3d,
  0x2e, 0x0e, 0x58, 0x3d, 0xa7, 0xb2, 0xe7, 0x3d, 0xe9, 0x4b, 0xf0, 0x3d,
  0x91, 0x52, 0x5f, 0x3a, 0xf3, 0xad, 0xdf, 0x3d, 0xcc, 0x3d, 0x06, 0x3e,
  0x83, 0xcb, 0x07, 0xbb, 0x57, 0xeb, 0xd0, 0xbc, 0x08, 0x0a, 0x32, 0xbd,
  0x48, 0x93, 0x8a, 0x3d, 0xdb, 0x68, 0x5a, 0x3d, 0x6a, 0xd4, 0x32, 0xbd,
  0x77, 0x45, 0x44, 0x3e, 0x58, 0x26, 0xd0, 0xbb, 0x09, 0x4b, 0x02, 0x3d,
  0x6a, 0x46, 0x12, 0x3e, 0xfd, 0x94, 0x19, 0x3d, 0x1a, 0x58, 0xe8, 0x3d,
  0x51, 0x03, 0x85, 0x3d, 0x70, 0xa3, 0x67, 0x3b, 0xd4, 0xf1, 0x1c, 0x3e,
  0x52, 0x55, 0x19, 0x3e, 0xb4, 0x83, 0x18, 0xbd, 0x46, 0x76, 0xa4, 0x3b,
  0x57, 0xbb, 0x71, 0x3d, 0x0f, 0x3a, 0x80, 0xbd, 0x4f, 0xc3, 0x94, 0x3d,
  0x2c, 0x01, 0xe0, 0x3c, 0x35, 0xc8, 0x54, 0xbc, 0xb9, 0x25, 0xc1, 0x3d,
  0x22, 0xea, 0xda, 0xbd, 0xe1, 0xdf, 0xea, 0x3c, 0xb9, 0xa4, 0x77, 0xbd,
  0x05, 0x1d, 0x8e, 0xbd, 0x00, 0x98, 0x4d, 0xbc, 0x8c, 0x80, 0x9b, 0xbd,
  0x08, 0x83, 0xa6, 0x3c, 0x0a, 0x27, 0x98, 0xbc, 0x95, 0xb8, 0x92, 0x3d,
  0xab, 0xde, 0x9c, 0xbc, 0x7c, 0x82, 0x16, 0x3e, 0x2f, 0x62, 0xb1, 0xbc,
  0x90, 0x11, 0x90, 0xbd, 0xc1, 0x11, 0x6c, 0xbd, 0xdb, 0xc2, 0xa6, 0x3c,
  0x38, 0x1b, 0x23, 0x3c, 0xdc, 0x18, 0x43, 0x39, 0x24, 0x55, 0xfb, 0x3d,
  0x38, 0xa1, 0x20, 0x3e, 0xd0, 0xe5, 0x98, 0x3d, 0x77, 0x58, 0xae, 0xbc,
  0x3a, 0xb0, 0x4b, 0x3d, 0x09, 0x91, 0x64, 0xbd, 0xdf, 0x70, 0xda, 0x3d,
  0x28, 0x98, 0x27, 0x3e, 0x63, 0x18, 0x92, 0xbd, 0xf6, 0x84, 0x8f, 0xbd,
  0x8c, 0xa6, 0x00, 0xbd, 0x00, 0xe3, 0x35, 0xbb, 0x60, 0x86, 0xb0, 0xbd,
  0x7a, 0xb3, 0x92, 0xbd, 0x9b, 0xc2, 0xcb, 0xbd, 0xba, 0x9f, 0x8c, 0xbd,
  0x10, 0xad, 0x22, 0xbc, 0x40, 0x86, 0xba, 0x3d, 0x1e, 0x2c, 0x14, 0xbd,
  0xaa, 0x30, 0xb5, 0x3d, 0x7c, 0x81, 0xf4, 0x3d, 0x30, 0x6e, 0x7d, 0x3c,
  0x86, 0x48, 0x03, 0xbd, 0x08, 0x71, 0x02, 0xbd, 0x50, 0xbf, 0xd5, 0xbd,
  0xb1, 0x4b, 0xca, 0xbd, 0xa4, 0x06, 0x1e, 0xbd, 0x20, 0x6d, 0xbb, 0xbc,
  0xb8, 0xbc, 0x85, 0x3d, 0x50, 0xd4, 0xf0, 0x3d, 0x80, 0xa4, 0xc6, 0x3b,
  0xc4, 0x55, 0xcb, 0x3d, 0xbc, 0x57, 0x25, 0x3d, 0x7e, 0x6c, 0xbe, 0xbd,
  0xf6, 0x4b, 0x84, 0xbd, 0x5c, 0x71, 0xad, 0xbc, 0x80, 0xa4, 0x95, 0xbb,
  0x84, 0x12, 0x73, 0xbd, 0xc0, 0xe2, 0x5c, 0x3d, 0x80, 0xa4, 0x96, 0x3c,
  0x78, 0xe9, 0xa3, 0x3d, 0xb0, 0xae, 0xcf, 0x3d, 0x28, 0x7d, 0x3d, 0xbd,
  0x9c, 0x0f, 0x27, 0xbd, 0x35, 0xf9, 0xb2, 0xbd, 0xac, 0x5e, 0x9c, 0xbd,
  0xb9, 0xe3, 0xaf, 0xbd, 0x8e, 0xa5, 0xf7, 0x3d, 0x00, 0x6a, 0xd4, 0x3c,
  0x6e, 0x1e, 0x90, 0x3d, 0x3e, 0x1c, 0xb7, 0x3d, 0x40, 0x37, 0x84, 0x3a,
  0xac, 0x28, 0xf5, 0x3d, 0x50, 0x7a, 0xc2, 0xbc, 0x34, 0xaf, 0xdc, 0xbd,
  0x22, 0xdd, 0xcb, 0x3d, 0xe0, 0xdc, 0x96, 0x3c, 0x30, 0x2b, 0xd8, 0xbd,
  0x80, 0xed, 0xb7, 0xbd, 0xac, 0xec, 0x3c, 0x3d, 0xe0, 0x18, 0xcb, 0x3d,
  0x9e, 0xc1, 0xd8, 0x3d, 0x14, 0xdd, 0xb5, 0xbd, 0x58, 0xf2, 0xba, 0xbd,
  0x68, 0x7d, 0xc1, 0x3c, 0x32, 0x6c, 0xac, 0x3d, 0x84, 0x89, 0xb7, 0xbc,
  0x50, 0xd2, 0x9f, 0xbb, 0x4e, 0xf1, 0xd1, 0xbd, 0x5a, 0x3b, 0xf4, 0x3d,
  0xe4, 0xbf, 0xec, 0xbc, 0x3a, 0x6c, 0xe6, 0x3d, 0x50, 0x66, 0xc0, 0x3d,
  0xc6, 0x6f, 0x8f, 0xbd, 0x0a, 0x67, 0xa8, 0x3d, 0x20, 0x22, 0xbc, 0x3c,
  0xc0, 0xa3, 0xc0, 0x3b, 0x6a, 0x64, 0x90, 0x3d, 0xa4, 0xa6, 0x74, 0xbd,
  0x50, 0x1b, 0x1f, 0x3d, 0xa4, 0x60, 0x96, 0xbc, 0xc4, 0x98, 0x3f, 0x3d,
  0xd2, 0x0e, 0xbc, 0x3d, 0x54, 0x50, 0xca, 0xbc, 0xb4, 0x87, 0x6e, 0x3d,
  0x28, 0x3e, 0x57, 0x3d, 0x04, 0x87, 0x6d, 0x3d, 0xfc, 0xbf, 0xeb, 0x3d,
  0x60, 0x39, 0xc1, 0x3b, 0x40, 0x18, 0xdc, 0x3d, 0x00, 0x06, 0xaf, 0xbd,
  0x60, 0x9f, 0x7e, 0xbc, 0x70, 0x44, 0x3a, 0x3c, 0x6c, 0x16, 0x52, 0x3d,
  0xf8, 0xee, 0x55, 0xbd, 0x10, 0xcf, 0xdd, 0xbd, 0x6a, 0x36, 0x50, 0xbd,
  0x0e, 0xb7, 0x9a, 0xbd, 0x80, 0xd8, 0xcf, 0xbc, 0x54, 0x20, 0xe1, 0xbd,
  0x18, 0x55, 0x0e, 0x3d, 0xd8, 0xdc, 0xed, 0xbd, 0xc9, 0x6a, 0x8f, 0xbd,
  0x4a, 0x81, 0x98, 0x3d, 0xcc, 0xee, 0x0f, 0x3d, 0x36, 0x85, 0xaa, 0xbd,
  0x38, 0x52, 0x57, 0x3d, 0xce, 0xbf, 0xa5, 0xbd, 0xd8, 0xc4, 0x62, 0xbd,
  0x38, 0xad, 0xee, 0x3c, 0xaa, 0xfd, 0xbe, 0xbd, 0x20, 0x78, 0x19, 0x3c,
  0x00, 0x53, 0xb2, 0x3a, 0x6c, 0x1d, 0xc4, 0xbc, 0xcc, 0x8c, 0x0a, 0x3d,
  0x0a, 0xe1, 0x8a, 0x3d, 0x74, 0xc7, 0x78, 0x3d, 0xac, 0xce, 0xff, 0xbc,
  0x68, 0x7c, 0x4e, 0xbc, 0x90, 0x18, 0xc9, 0x3d, 0x12, 0xaf, 0x6c, 0xbd,
  0xb0, 0x64, 0x5b, 0x3c, 0x36, 0xee, 0xc0, 0x3d, 0x40, 0x1d, 0xc9, 0xbb,
  0x1a, 0xba, 0xae, 0xbd, 0x44, 0x78, 0x8d, 0x3d, 0x41, 0x92, 0xb1, 0xbd,
  0xbe, 0x91, 0xf6, 0x3d, 0xec, 0xf0, 0xb1, 0x3d, 0x02, 0x1a, 0x27, 0xbd,
  0xa3, 0x3f, 0xb2, 0xbd, 0xb0, 0x01, 0x28, 0x3d, 0x80, 0x3a, 0x3a, 0x3d,
  0x34, 0xab, 0xd0, 0xbc, 0x48, 0xc8, 0xa0, 0x3c, 0x80, 0x2d, 0xb5, 0x3b,
  0x78, 0x72, 0xe2, 0x3d, 0x1e, 0x12, 0x84, 0x3d, 0x9d, 0x74, 0x85, 0xbd,
  0xf6, 0xf1, 0xf5, 0x3d, 0xe8, 0xf6, 0x06, 0xbc, 0x50, 0x7f, 0xc8, 0xbd,
  0x60, 0x5a, 0xc1, 0xbb, 0xd8, 0xb7, 0x71, 0x3d, 0xfb, 0xe1, 0xc4, 0xbd,
  0x8c, 0x39, 0x68, 0xbd, 0x38, 0x08, 0xdb, 0x3d, 0x18, 0x9d, 0x75, 0x3d,
  0x30, 0xa0, 0x64, 0x3d, 0xd4, 0x51, 0x68, 0xbd, 0xb2, 0x40, 0xbb, 0xbd,
  0xf8, 0xf8, 0x14, 0x3d, 0x3c, 0xa6, 0x3f, 0x3d, 0x3c, 0xf4, 0x71, 0x3d,
  0x8a, 0xee, 0x14, 0xbd, 0xf4, 0x36, 0xa1, 0xbc, 0x60, 0x2f, 0xc6, 0xbd,
  0x51, 0x3c, 0x91, 0xbd, 0x1e, 0xb6, 0x03, 0xbd, 0x7a, 0xdc, 0xa3, 0xbd,
  0x62, 0x5f, 0xb5, 0x3d, 0xd6, 0x75, 0xf7, 0x3d, 0x30, 0xb2, 0x62, 0x3c,
  0x92, 0x28, 0x25, 0xbd, 0x20, 0x6a, 0xe1, 0x3c, 0x28, 0x5d, 0x9d, 0x3c,
  0xa0, 0x1b, 0x2a, 0x3c, 0xee, 0x97, 0x97, 0x3d, 0x34, 0xa1, 0x33, 0x3d,
  0x84, 0x42, 0xa5, 0xbc, 0x32, 0xb1, 0xef, 0xbd, 0xf8, 0xb4, 0x6d, 0x3d,
  0x10, 0x66, 0x55, 0x3d, 0x88, 0x8c, 0xcc, 0xbd, 0xe0, 0xa9, 0xab, 0x3c,
  0xc5, 0x99, 0x91, 0xbd, 0x30, 0x3c, 0x24, 0x3d, 0xf8, 0x2c, 0x02, 0x3d,
  0x80, 0xbf, 0x01, 0x3d, 0xc0, 0x8a, 0x42, 0xbd, 0x5e, 0xc1, 0xc6, 0x3d,
  0xe8, 0xc1, 0x0e, 0xbd, 0x78, 0xc0, 0xbe, 0x3d, 0xd4, 0x82, 0xba, 0xbc,
  0x02, 0xb8, 0xf6, 0x3d, 0xc0, 0x70, 0xb1, 0xbb, 0x74, 0x87, 0x79, 0x3d,
  0x20, 0x0e, 0xaa, 0x3d, 0x52, 0x27, 0xe5, 0xbd, 0x76, 0x4d, 0xc3, 0x3d,
  0xb2, 0x69, 0xf1, 0x3d, 0xf0, 0xa8, 0xc0, 0xbd, 0x60, 0x0a, 0xc1, 0x3b,
  0xf2, 0x63, 0xe6, 0x3d, 0x7f, 0x0e, 0xbe, 0xbd, 0x58, 0x75, 0xc0, 0x3c,
  0x90, 0xdf, 0x57, 0xbc, 0x00, 0x82, 0xc6, 0x3a, 0xc0, 0x86, 0xfe, 0x3a,
  0xf6, 0x9a, 0x93, 0x3d, 0x28, 0x85, 0xc1, 0x3d, 0x5c, 0x72, 0xd6, 0x3d,
  0x98, 0x60, 0x5e, 0x3d, 0x0c, 0xe0, 0x23, 0x3d, 0x28, 0x81, 0xa4, 0xbd,
  0x70, 0xaf, 0x71, 0x3c, 0x35, 0x17, 0xe9, 0xbd, 0xae, 0x33, 0xdf, 0xbd,
  0x18, 0x85, 0x88, 0xbd, 0xd1, 0xed, 0x97, 0xbd, 0x28, 0xba, 0x45, 0xbc,
  0x26, 0x62, 0xb7, 0x3d, 0xce, 0x5b, 0x8f, 0x3d, 0x96, 0x88, 0xce, 0x3d,
  0x60, 0xa1, 0x27, 0xbd, 0x78, 0x72, 0x6a, 0x3d, 0x66, 0x1d, 0x41, 0xbd,
  0xea, 0x34, 0x3b, 0xbd, 0x04, 0x1b, 0xf3, 0x3d, 0x52, 0xc7, 0x01, 0xbd,
  0xc0, 0x0d, 0x73, 0x3d, 0xe2, 0x98, 0xd0, 0x3d, 0xb4, 0xfc, 0xcc, 0xbc,
  0x42, 0x79, 0xf4, 0xbd, 0x84, 0x5e, 0xbe, 0xbd, 0x9c, 0xe2, 0x41, 0x3d,
  0x40, 0x95, 0xa1, 0x3c, 0xfe, 0xbd, 0x62, 0xbd, 0x10, 0xd5, 0x9b, 0x3d,
  0xb0, 0xfa, 0x9c, 0x3c, 0x8e, 0x54, 0xa2, 0x3d, 0x44, 0xf3, 0x7a, 0x3d,
  0x58, 0x5c, 0xd5, 0x3c, 0x7e, 0x65, 0x8f, 0xbd, 0x78, 0x80, 0xed, 0x3c,
  0xb0, 0x91, 0xfb, 0x3c, 0x92, 0x77, 0xd0, 0xbd, 0x10, 0x4e, 0x15, 0x3d,
  0x60, 0x5c, 0x0d, 0xbd, 0x02, 0xb5, 0x92, 0x3d, 0xd8, 0xd4, 0x95, 0x3d,
  0x40, 0x51, 0x4e, 0x3c, 0x36, 0x9e, 0x9a, 0x3d, 0x20, 0x40, 0xe1, 0x3c,
  0xe2, 0xc5, 0x1c, 0xbd, 0x06, 0x4d, 0x22, 0xbd, 0x92, 0xc9, 0xc5, 0xbd,
  0x74, 0x70, 0x79, 0x3d, 0x37, 0x9f, 0xeb, 0xbd, 0x2e, 0x9e, 0xc7, 0xbd,
  0xec, 0x18, 0xa9, 0x3d, 0xb4, 0xf5, 0xed, 0xbd, 0xfa, 0x29, 0x18, 0xbd,
  0xf8, 0x13, 0x76, 0xbc, 0xa8, 0x34, 0xe0, 0x3c, 0x14, 0x3b, 0x10, 0x3d,
  0x2d, 0x8b, 0xb5, 0xbd, 0xcc, 0x09, 0xd7, 0xbd, 0xe0, 0xb2, 0xa6, 0x3b,
  0xd0, 0x7b, 0xe8, 0xbb, 0xa0, 0x2e, 0x58, 0xbd, 0xf8, 0x43, 0x39, 0x3d,
  0xb0, 0x25, 0x50, 0x3c, 0xc0, 0x4f, 0x4c, 0xbb, 0xcb, 0xd2, 0x9f, 0xbd,
  0x42, 0xae, 0x05, 0xbe, 0xbf, 0x41, 0x58, 0x3d, 0xd6, 0xde, 0xa9, 0x3d,
  0x8b, 0x4a, 0xa0, 0xbb, 0x71, 0x8d, 0x7b, 0xbd, 0x8e, 0x78, 0xc3, 0x3d,
  0x3c, 0x1e, 0xd4, 0xbc, 0x87, 0x26, 0xa7, 0xba, 0x93, 0x93, 0x3f, 0x3d,
  0x0a, 0x94, 0x99, 0xbc, 0xec, 0x62, 0x8b, 0x3c, 0xae, 0xce, 0x1b, 0xbd,
  0x13, 0x2a, 0x17, 0x3e, 0x4e, 0x59, 0x84, 0x3d, 0xd4, 0xea, 0xdb, 0x3a,
  0x9c, 0x1d, 0x86, 0xbd, 0x4c, 0x19, 0xc3, 0x3d, 0x39, 0xd1, 0x88, 0xbd,
  0x6d, 0xc6, 0xf9, 0x3d, 0x74, 0x4e, 0x4d, 0xbd, 0x5d, 0xc0, 0xea, 0x3b,
  0x86, 0xb5, 0x7d, 0x3d, 0xe9, 0x06, 0x05, 0xbe, 0x3e, 0x0f, 0x8a, 0xbd,
  0x34, 0x77, 0xab, 0xbd, 0x7c, 0xe0, 0x8b, 0xbd, 0x0a, 0xd0, 0x5f, 0xbe,
  0x37, 0x64, 0xd5, 0xbd, 0xe8, 0xbe, 0x3e, 0xbe, 0x30, 0xaa, 0x34, 0xbe,
  0x61, 0x8f, 0x27, 0xbe, 0xf9, 0x6b, 0x34, 0xbe, 0x74, 0xcc, 0x8a, 0x3b,
  0xbd, 0x98, 0x14, 0xbe, 0xa3, 0x35, 0x25, 0x3d, 0xad, 0x45, 0x04, 0x3d,
  0x59, 0x96, 0x13, 0x3d, 0x6e, 0x99, 0x24, 0xbd, 0x14, 0x77, 0x7c, 0xbd,
  0x8f, 0x58, 0xe8, 0x3c, 0x08, 0x4c, 0x03, 0x3d, 0x66, 0xc8, 0xac, 0x3b,
  0x33, 0x6c, 0xaf, 0xbc, 0x41, 0x53, 0x8b, 0x3c, 0xc2, 0x84, 0xfd, 0x3d,
  0xea, 0x2f, 0xe4, 0x3d, 0x40, 0xd8, 0xef, 0xbc, 0x55, 0xfa, 0x20, 0x3d,
  0x6f, 0x5d, 0xd9, 0x3d, 0x0f, 0xab, 0x00, 0x3e, 0xab, 0x10, 0xf3, 0x3c,
  0x55, 0x6d, 0xe8, 0x3d, 0x78, 0xe9, 0x91, 0x3c, 0x97, 0xec, 0x13, 0x3e,
  0xb4, 0xd3, 0x2a, 0x3e, 0xfb, 0x98, 0x5b, 0x3e, 0x32, 0x1e, 0xca, 0xbc,
  0x12, 0x88, 0x96, 0xbc, 0x3c, 0xe2, 0xe0, 0x3d, 0x4e, 0x4d, 0x68, 0x3d,
  0x53, 0x4d, 0x2c, 0x3e, 0xfe, 0xa8, 0xb9, 0x3d, 0x6d, 0x79, 0xf7, 0x3c,
  0x9c, 0xcc, 0x2b, 0x3e, 0xe7, 0x71, 0x9d, 0x3d, 0xee, 0x4d, 0xfd, 0x3d,
  0x4a, 0x7f, 0x26, 0x3e, 0x07, 0x3a, 0x85, 0x3d, 0x91, 0x68, 0xa4, 0x3d,
  0xdd, 0xa7, 0x5c, 0x3c, 0x9a, 0xe4, 0x88, 0x3d, 0xa1, 0x06, 0x5d, 0x3e,
  0x65, 0x36, 0xb3, 0x3d, 0x62, 0xad, 0x7c, 0x3c, 0x1f, 0xf1, 0x26, 0x3e,
  0x90, 0x4f, 0xaa, 0x3d, 0x94, 0x4c, 0x1c, 0x3d, 0x12, 0x5c, 0xb7, 0x3d,
  0x00, 0x40, 0x0e, 0xba, 0x8a, 0x65, 0x22, 0x3d, 0x4d, 0xe1, 0x28, 0x3e,
  0x1f, 0xbd, 0xf5, 0xbc, 0xe0, 0x81, 0x28, 0x3e, 0x95, 0x01, 0x79, 0xbd,
  0x50, 0x42, 0xe4, 0x3d, 0x3e, 0x05, 0x12, 0x3c, 0xf5, 0x73, 0xc8, 0x3d,
  0x5d, 0xf8, 0x2a, 0xbc, 0x4d, 0xad, 0x42, 0xbd, 0xff, 0xcf, 0x32, 0x3d,
  0x0a, 0xaf, 0x14, 0x3e, 0x40, 0x78, 0x3f, 0x3e, 0x31, 0x63, 0xe3, 0x3d,
  0xc3, 0xcd, 0x1a, 0x3e, 0xd7, 0x13, 0x52, 0x3d, 0x7f, 0x13, 0x83, 0x3c,
  0x68, 0x7c, 0x31, 0x3e, 0x8a, 0xd5, 0x95, 0x3d, 0xbe, 0x30, 0xbc, 0x3b,
  0xad, 0x86, 0x71, 0x3d, 0xf5, 0xcc, 0x6a, 0x3e, 0xe3, 0x7e, 0x38, 0x3e,
  0x7b, 0x0e, 0x8a, 0x3c, 0x2f, 0xeb, 0x47, 0x3d, 0xa0, 0xf8, 0x5b, 0x3e,
  0x06, 0x71, 0xec, 0x3d, 0x61, 0xc0, 0x11, 0x3e, 0x9e, 0xd6, 0xd5, 0x3d,
  0x90, 0xb4, 0x4e, 0x3e, 0xb7, 0x4f, 0xa2, 0x3d, 0x21, 0x88, 0x56, 0x3e,
  0x87, 0x32, 0x5e, 0x3e, 0xee, 0x6e, 0x5a, 0x3e, 0x1c, 0xcd, 0x21, 0x3e,
  0x85, 0xe7, 0x34, 0x3e, 0x96, 0x20, 0x16, 0x3e, 0x02, 0xcb, 0x49, 0x3d,
  0x6f, 0x27, 0x85, 0x3c, 0xfd, 0xc0, 0x32, 0x3e, 0xbc, 0x96, 0x94, 0x3d,
  0x0f, 0x44, 0x3b, 0x3e, 0xea, 0x36, 0x63, 0x3e, 0xf2, 0xe2, 0xff, 0xbb,
  0xf9, 0x03, 0x3f, 0x3e, 0x46, 0x99, 0x22, 0x3e, 0x2f, 0xa1, 0x26, 0x3e,
  0x91, 0x8a, 0x07, 0x3e, 0x32, 0xf3, 0xce, 0xbd, 0xb0, 0x15, 0x65, 0x3d,
  0x5e, 0x6a, 0x33, 0xbd, 0x2c, 0x7d, 0xca, 0x3d, 0xb8, 0x84, 0x9b, 0x3d,
  0x8c, 0xe9, 0x21, 0xbd, 0x62, 0xed, 0xd4, 0xbd, 0xd6, 0xeb, 0x68, 0xbd,
  0xce, 0x4c, 0x8a, 0x3d, 0xcc, 0x7f, 0x33, 0x3d, 0x48, 0xca, 0xfb, 0x3c,
  0xbc, 0x8e, 0x1f, 0x3d, 0xbc, 0x70, 0x5c, 0x3d, 0xfa, 0x8f, 0xdb, 0x3d,
  0xa0, 0x8f, 0xbb, 0x3d, 0x24, 0x49, 0x29, 0xbd, 0xa0, 0xac, 0xd2, 0xbb,
  0x26, 0xb0, 0x5e, 0xbd, 0x88, 0x36, 0x4b, 0x3d, 0x48, 0xbd, 0x93, 0x3d,
  0x0e, 0x57, 0x11, 0xbd, 0x8c, 0xc0, 0x8d, 0xbc, 0x20, 0x87, 0xef, 0x3c,
  0x50, 0x78, 0xe3, 0xbb, 0x7c, 0xdb, 0x32, 0x3d, 0x96, 0x01, 0x87, 0xbd,
  0xc2, 0xfb, 0xb9, 0xbd, 0x9e, 0x8d, 0x9f, 0x3d, 0xd8, 0xeb, 0x98, 0xbd,
  0xc0, 0x1c, 0xf5, 0xba, 0x24, 0x44, 0x10, 0xbd, 0x1c, 0xc5, 0xae, 0x3d,
  0x80, 0xa9, 0xb3, 0x3c, 0xa0, 0xb6, 0x63, 0x3c, 0x6c, 0xd0, 0x59, 0x3d,
  0x4e, 0xdc, 0x28, 0xbd, 0xe6, 0x4f, 0xab, 0x3d, 0x2c, 0x37, 0xc5, 0x3d,
  0x60, 0x89, 0x5d, 0xbd, 0xdc, 0x78, 0x5a, 0x3d, 0xa8, 0xb6, 0x86, 0xbd,
  0x24, 0x0e, 0x95, 0x3d, 0x70, 0xf5, 0x8e, 0xbb, 0x20, 0x7b, 0x83, 0xbd,
  0x6c, 0x82, 0xe5, 0x3d, 0x3e, 0xbc, 0x84, 0xbd, 0x80, 0x51, 0x26, 0xba,
  0x06, 0xd5, 0xb2, 0x3d, 0x0c, 0x5f, 0x91, 0xbd, 0x10, 0xfb, 0xf0, 0x3c,
  0x10, 0x58, 0x03, 0x3c, 0x50, 0x6f, 0xbb, 0xbc, 0xc8, 0xb5, 0x94, 0xbc,
  0x56, 0x3b, 0xeb, 0x3d, 0x4e, 0xa5, 0x4c, 0xbd, 0xea, 0x4a, 0xc3, 0xbd,
  0x00, 0xcd, 0xb9, 0x3a, 0xff, 0x62, 0xea, 0xbd, 0xda, 0xd7, 0x83, 0x3d,
  0x80, 0x13, 0xed, 0xbc, 0xe2, 0xa2, 0xb1, 0xbd, 0x18, 0x93, 0xe2, 0x3d,
  0xaa, 0x05, 0x17, 0xbd, 0x80, 0xb3, 0x27, 0x3d, 0x34, 0xf9, 0x0d, 0x3d,
  0xce, 0x34, 0x18, 0xbd, 0x80, 0x23, 0xa2, 0x3c, 0xac, 0xb3, 0xe0, 0x3d,
  0xde, 0x1b, 0xce, 0x3d, 0x08, 0xad, 0xa8, 0x3c, 0x9c, 0x21, 0x98, 0x3d,
  0x80, 0xa6, 0x85, 0xbd, 0x80, 0x68, 0x2f, 0xbc, 0x9b, 0xfb, 0x90, 0xbd,
  0x71, 0x63, 0xae, 0xbd, 0xc6, 0x87, 0xec, 0x3d, 0x8a, 0xf3, 0x60, 0xbd,
  0xfc, 0x5b, 0x4f, 0x3d, 0xe4, 0x36, 0xb1, 0x3d, 0xa0, 0xaa, 0x08, 0x3c,
  0x6c, 0x41, 0xf6, 0x3d, 0x38, 0x93, 0xcc, 0x3d, 0xa0, 0x7c, 0xbe, 0x3c,
  0x74, 0x79, 0x8d, 0x3d, 0xda, 0x78, 0xc1, 0xbd, 0x46, 0x05, 0xdc, 0x3d,
  0x72, 0x76, 0xab, 0x3d, 0x50, 0xbf, 0xb3, 0xbb, 0x50, 0x9b, 0x4f, 0x3c,
  0x90, 0x0c, 0xd9, 0x3c, 0xc8, 0x38, 0xe9, 0xbd, 0xbc, 0x1e, 0x6c, 0x3d,
  0x30, 0xb0, 0x86, 0x3c, 0x38, 0x8b, 0xaa, 0x3d, 0x40, 0x61, 0xb9, 0x3d,
  0x22, 0xee, 0x07, 0xbd, 0x56, 0xd0, 0x48, 0xbd, 0x0c, 0xc4, 0x02, 0x3d,
  0xa2, 0x4c, 0xc2, 0x3d, 0x7c, 0x8a, 0x58, 0x3d, 0xb8, 0x02, 0xa9, 0xbd,
  0x9d, 0x10, 0x89, 0xbd, 0x44, 0xad, 0x56, 0x3d, 0x00, 0xa6, 0xa3, 0x3d,
  0xcc, 0x98, 0x92, 0x3d, 0xcc, 0xa7, 0xa7, 0x3d, 0x28, 0x37, 0x70, 0xbc,
  0x10, 0xb0, 0x11, 0x3c, 0x48, 0xd0, 0x94, 0xbc, 0x83, 0xc8, 0xd5, 0xbd,
  0x14, 0xa2, 0xb6, 0xbd, 0x60, 0xaa, 0x28, 0x3d, 0x48, 0xd7, 0xb7, 0xbd,
  0x88, 0xb0, 0xdf, 0x3c, 0xfe, 0xc6, 0x30, 0xbd, 0x10, 0xf5, 0x5d, 0xbd,
  0x28, 0x41, 0x5b, 0xbc, 0x8c, 0xa4, 0xd4, 0x3d, 0x98, 0xdf, 0x9c, 0x3c,
  0xe4, 0x77, 0x85, 0x3d, 0x28, 0x40, 0xda, 0x3d, 0x8c, 0xb5, 0xe7, 0xbc,
  0xc0, 0x16, 0xed, 0xbd, 0x4c, 0x10, 0x76, 0x3d, 0x52, 0x67, 0x16, 0xbd,
  0x60, 0xe7, 0x0c, 0x3c, 0x80, 0xa8, 0x74, 0xba, 0x0b, 0x0a, 0xa4, 0xbd,
  0xe0, 0xc6, 0xc8, 0xbc, 0x00, 0xf7, 0xa2, 0x3a, 0xd0, 0x1d, 0x0d, 0x3c,
  0xa0, 0x34, 0x0a, 0x3b, 0xa0, 0x54, 0x4e, 0x3c, 0xb4, 0x4d, 0xbe, 0x3d,
  0x15, 0x93, 0x89, 0xbd, 0xb2, 0x9f, 0x84, 0xbd, 0x18, 0x3e, 0xb9, 0xbd,
  0x6a, 0x1a, 0x86, 0x3d, 0x40, 0x57, 0x66, 0x3b, 0xe8, 0xfc, 0xa1, 0xbd,
  0x36, 0x85, 0xdc, 0x3d, 0x38, 0x9b, 0x98, 0x3c, 0x5c, 0xc3, 0xac, 0x3d,
  0x3c, 0xd2, 0x10, 0x3d, 0x32, 0xc1, 0xc3, 0xbd, 0x3e, 0x07, 0xee, 0x3d,
  0x00, 0x68, 0x95, 0x3c, 0x5a, 0x63, 0xba, 0x3d, 0x60, 0x37, 0x13, 0x3c,
  0xde, 0x25, 0x80, 0x3d, 0x80, 0x25, 0xac, 0x3c, 0x32, 0x99, 0xeb, 0xbd,
  0x40, 0x6c, 0x3a, 0x3d, 0xdc, 0xe2, 0x8d, 0xbd, 0xc4, 0xaf, 0x43, 0xbd,
  0x55, 0xaa, 0xf6, 0xbd, 0x40, 0x25, 0xf3, 0x3c, 0x7c, 0xcf, 0xaf, 0x3d,
  0x63, 0x4c, 0xdf, 0xbd, 0xbe, 0xd3, 0x2d, 0xbd, 0x1e, 0xfd, 0xd8, 0xbd,
  0x12, 0x81, 0xac, 0xbd, 0x44, 0x4d, 0x1f, 0x3d, 0x10, 0xdd, 0x27, 0xbc,
  0xd6, 0x3f, 0xe8, 0x3d, 0x18, 0xe8, 0xc2, 0xbd, 0x60, 0xa8, 0xe1, 0x3b,
  0x5a, 0x53, 0x55, 0xbd, 0x20, 0x39, 0xcb, 0x3b, 0x66, 0xf4, 0x09, 0xbd,
  0x22, 0xb5, 0x5a, 0xbd, 0x60, 0xc2, 0xfd, 0xbc, 0x10, 0xb1, 0x4e, 0x3d,
  0x00, 0x48, 0xf1, 0x3c, 0x87, 0x36, 0xdb, 0xbd, 0x64, 0x67, 0x43, 0x3d,
  0x26, 0xe8, 0x81, 0xbd, 0xb8, 0x2b, 0x04, 0x3d, 0xd8, 0xde, 0xc8, 0xbd,
  0x1e, 0xfb, 0x8d, 0xbd, 0x1e, 0x23, 0x86, 0x3d, 0xcc, 0xfe, 0x83, 0xbc,
  0xf2, 0xef, 0xe3, 0x3d, 0xf4, 0x4b, 0x8c, 0xbc, 0x64, 0x08, 0xac, 0x3d,
  0x10, 0xb2, 0xcd, 0x3d, 0xaf, 0x9a, 0xda, 0xbd, 0xbf, 0x32, 0xd9, 0xbd,
  0x20, 0x73, 0x12, 0x3d, 0xe4, 0x24, 0xc9, 0xbd, 0x53, 0x6c, 0xcb, 0xbd,
  0x24, 0x06, 0xc6, 0x3d, 0xde, 0x11, 0xab, 0x3d, 0x20, 0xe5, 0xa9, 0xbc,
  0x98, 0xe6, 0x59, 0xbc, 0x7e, 0x3b, 0xc0, 0x3d, 0xb8, 0x9a, 0xac, 0x3c,
  0xfa, 0x15, 0xc3, 0x3d, 0x58, 0x77, 0x03, 0xbc, 0xfa, 0x70, 0xc3, 0xbd,
  0xcc, 0x3d, 0x0b, 0x3d, 0xf7, 0xdb, 0xd8, 0xbd, 0x2c, 0x12, 0x4e, 0x3d,
  0x15, 0x71, 0xa6, 0xbd, 0x00, 0x70, 0x96, 0xb8, 0x48, 0x23, 0x48, 0x3d,
  0x9c, 0x30, 0x54, 0x3d, 0xa3, 0xa7, 0xcc, 0xbd, 0x8c, 0x95, 0x1f, 0x3d,
  0xfc, 0x63, 0x36, 0xbd, 0xf2, 0x80, 0x87, 0xbd, 0x06, 0x02, 0xad, 0x3d,
  0x30, 0xc0, 0x06, 0x3c, 0x74, 0xc6, 0xbb, 0xbd, 0xc5, 0xd0, 0xa8, 0xbd,
  0x40, 0xb9, 0x42, 0x3d, 0x94, 0x83, 0x94, 0xbc, 0xda, 0xa8, 0xc6, 0x3d,
  0xa0, 0x32, 0xfb, 0xbb, 0x6e, 0x55, 0xc5, 0x3d, 0xf4, 0x5c, 0xe9, 0x3d,
  0xf2, 0x0d, 0xdc, 0x3d, 0x24, 0xf2, 0x27, 0xbd, 0x2e, 0xfd, 0x9e, 0x3d,
  0x96, 0xe5, 0xd4, 0x3d, 0xf2, 0x88, 0x3e, 0xbd, 0xae, 0x07, 0xac, 0x3d,
  0x2e, 0xd7, 0x39, 0xbd, 0x74, 0x05, 0xf5, 0x3d, 0xca, 0x5c, 0xbd, 0x3d,
  0x60, 0xac, 0x98, 0xbb, 0x8c, 0xeb, 0xe0, 0x3d, 0x02, 0x1d, 0xf3, 0x3d,
  0xce, 0xda, 0x4d, 0xbd, 0x2c, 0xbc, 0xb0, 0x3d, 0x34, 0x4f, 0x1a, 0x3d,
  0xc0, 0x89, 0x74, 0xbd, 0x32, 0xdf, 0xe8, 0x3d, 0x5b, 0xdc, 0xc8, 0xbd,
  0x28, 0xb6, 0x96, 0x3d, 0x2a, 0xc7, 0xe1, 0xbd, 0xa0, 0x03, 0x9c, 0x3c,
  0x3e, 0x1f, 0x4c, 0xbd, 0xab, 0xbd, 0xdb, 0xbd, 0x10, 0x5a, 0xe2, 0x3d,
  0x58, 0xbe, 0xd0, 0x3d, 0x68, 0x80, 0x86, 0x3d, 0x3e, 0xf5, 0xe1, 0x3d,
  0x4a, 0x96, 0xe6, 0x3d, 0xd6, 0x18, 0xde, 0xbd, 0xc4, 0xc8, 0xe6, 0xbc,
  0x18, 0xf4, 0x4d, 0xbc, 0x70, 0x3b, 0x2a, 0x3c, 0xba, 0xdd, 0xa6, 0x3d,
  0x80, 0x74, 0x2f, 0x3c, 0xcf, 0x86, 0xe3, 0xbd, 0x99, 0x03, 0x11, 0xbd,
  0xb8, 0x50, 0x43, 0x3e, 0x8c, 0x1f, 0x46, 0x3e, 0x84, 0xf1, 0xd5, 0x3d,
  0x37, 0x43, 0xf3, 0x3b, 0x93, 0xec, 0x19, 0xbd, 0x93, 0xdc, 0x43, 0x3d,
  0xbd, 0xc8, 0x2d, 0xbd, 0xf6, 0xa8, 0x83, 0xbc, 0x79, 0x56, 0x10, 0xbd,
  0x5d, 0x1b, 0x09, 0xbe, 0x74, 0xf3, 0x1a, 0x3d, 0xc3, 0x93, 0x26, 0xbd,
  0x4b, 0x11, 0x8c, 0xbd, 0x40, 0x78, 0x0d, 0xbe, 0x4f, 0x65, 0xdb, 0xbc,
  0x7a, 0x3f, 0xea, 0xbd, 0xe4, 0xae, 0x2e, 0xbe, 0x66, 0x53, 0x99, 0xbd,
  0x9e, 0x0d, 0xba, 0x3d, 0x0d, 0x05, 0x47, 0xbd, 0x64, 0x80, 0x50, 0xbb,
  0x5e, 0x29, 0xc1, 0x3d, 0x59, 0x10, 0x02, 0x3d, 0x5d, 0xfd, 0x55, 0x3e,
  0xc1, 0x1b, 0xe2, 0x3d, 0xde, 0xd0, 0x08, 0x3e, 0xaa, 0x04, 0x4f, 0x3e,
  0xbd, 0x36, 0x5f, 0x3e, 0x45, 0x52, 0x9b, 0x3e, 0x3e, 0x32, 0xc3, 0x3d,
  0x91, 0x8c, 0x74, 0x3e, 0x7b, 0xfe, 0x3a, 0x3e, 0x9a, 0x1b, 0x19, 0x3e,
  0xf0, 0xfd, 0xb1, 0x3d, 0x04, 0xdf, 0x84, 0x3e, 0x12, 0x15, 0xce, 0x3d,
  0xd2, 0xa7, 0x62, 0x3e, 0xfe, 0x0f, 0x80, 0x3d, 0x68, 0x44, 0x73, 0x3e,
  0xbe, 0x92, 0x3b, 0x3e, 0x55, 0xd9, 0x3a, 0x3e, 0xc9, 0x5e, 0x06, 0xbc,
  0x6e, 0x7f, 0x51, 0x3e, 0x9d, 0xd4, 0xbe, 0x3a, 0x58, 0x61, 0x24, 0x3e,
  0x49, 0x11, 0x37, 0x3e, 0x9a, 0xeb, 0x4e, 0x3d, 0xbd, 0x4e, 0x15, 0x3e,
  0xf5, 0x07, 0x3b, 0x3e, 0xd0, 0xba, 0x02, 0x3e, 0xb0, 0xd8, 0xb6, 0x3b,
  0x53, 0xff, 0xd6, 0x3d, 0xb9, 0x86, 0xa5, 0x3c, 0xf1, 0xf0, 0x3a, 0x3e,
  0x10, 0x49, 0x50, 0x3e, 0x60, 0x79, 0x5d, 0x3e, 0xd8, 0x17, 0xef, 0x3c,
  0xfd, 0xa1, 0x14, 0x3e, 0x95, 0x12, 0x8f, 0x3d, 0xd8, 0x48, 0x69, 0x3e,
  0x58, 0xc8, 0x59, 0x3e, 0x01, 0x68, 0x00, 0x3c, 0x3a, 0x33, 0x47, 0x3e,
  0x04, 0xe5, 0x93, 0x3d, 0x32, 0xb5, 0xe9, 0x3d, 0x9c, 0x00, 0x2d, 0x3e,
  0x1f, 0xf7, 0xdc, 0x3d, 0xea, 0x49, 0x25, 0x3e, 0x88, 0xbb, 0x60, 0x3e,
  0x6e, 0xaa, 0x13, 0x3d, 0xee, 0x9f, 0xfe, 0x3c, 0x4f, 0x13, 0x2d, 0x3e,
  0x75, 0x83, 0x10, 0x3e, 0x1a, 0xc6, 0xfa, 0x3d, 0x8c, 0xc1, 0x06, 0x3e,
  0x1c, 0xad, 0x8e, 0xb9, 0x99, 0x4c, 0x8f, 0x3d, 0xea, 0x6a, 0x25, 0x3e,
  0xb0, 0x9f, 0x32, 0xbd, 0xa0, 0xea, 0x32, 0x3e, 0xa7, 0xe0, 0xad, 0x3d,
  0xf4, 0xa7, 0x2a, 0x3e, 0xfd, 0xca, 0x0b, 0x3e, 0x34, 0xc3, 0xf5, 0x3d,
  0x35, 0x8c, 0x20, 0x3e, 0x80, 0x10, 0xe5, 0xba, 0x58, 0xf9, 0x46, 0xbd,
  0x00, 0xc1, 0x1c, 0x3d, 0x6b, 0x87, 0x52, 0xbd, 0x9e, 0x71, 0x14, 0x3e,
  0xce, 0xe7, 0x90, 0xbd, 0x70, 0x58, 0x7d, 0x3d, 0x9e, 0x79, 0x12, 0xbd,
  0xbb, 0xdc, 0x60, 0xbd, 0xa8, 0xb8, 0x92, 0x3d, 0xee, 0x20, 0xbb, 0x3d,
  0xa1, 0x5b, 0xba, 0xbd, 0xa5, 0x3a, 0x9d, 0x3d, 0xd9, 0x98, 0x03, 0xbd,
  0x33, 0x81, 0x10, 0xbd, 0x48, 0x4e, 0xb6, 0xbc, 0x34, 0xe2, 0x9a, 0xbd,
  0xd3, 0xd9, 0x6e, 0xbd, 0x99, 0x02, 0x63, 0xbd, 0xc6, 0x26, 0xf3, 0xbd,
  0xd1, 0xf7, 0xea, 0xbd, 0x6d, 0x39, 0x43, 0xbd, 0xe4, 0x8c, 0xa3, 0xbd,
  0x96, 0xdc, 0x8e, 0xbd, 0x6e, 0x15, 0x9e, 0xbd, 0xb2, 0x8f, 0x7a, 0x3d,
  0xe0, 0x75, 0xd3, 0xbd, 0x8b, 0xf2, 0xb4, 0x3c, 0xd4, 0x0a, 0x57, 0x3d,
  0xc0, 0x56, 0xbe, 0x3a, 0xa9, 0x28, 0x36, 0xbb, 0x66, 0x13, 0x79, 0xbd,
  0x72, 0x24, 0x1f, 0xbd, 0x3e, 0xdb, 0x27, 0x3d, 0xba, 0x82, 0x59, 0x3c,
  0xcf, 0xfe, 0x06, 0x3e, 0xe4, 0x0b, 0xd2, 0xbd, 0x3f, 0xa4, 0x7c, 0x3d,
  0xdc, 0xa1, 0x00, 0x3e, 0x10, 0xa7, 0x57, 0x3d, 0xc1, 0x04, 0x22, 0xbc,
  0xca, 0xe2, 0x8e, 0x3d, 0x9f, 0x6e, 0x9b, 0xbd, 0xc2, 0xae, 0xe1, 0xbd,
  0xe3, 0xd5, 0xd8, 0xbd, 0x0e, 0xf9, 0x85, 0x3d, 0x8a, 0x62, 0x8f, 0x3d,
  0xe0, 0xb7, 0x59, 0x3c, 0xad, 0xf6, 0xcf, 0xbd, 0xc0, 0xc0, 0x62, 0xbd,
  0xac, 0xf9, 0x12, 0x3d, 0x70, 0x84, 0xbe, 0xbb, 0xb0, 0x3b, 0x80, 0xbc,
  0x48, 0x0b, 0xb6, 0xbc, 0x18, 0xe0, 0x2b, 0xbc, 0x3e, 0xf0, 0x66, 0xbd,
  0xa5, 0x33, 0xc7, 0xbd, 0x9c, 0x92, 0xaf, 0xbd, 0x12, 0xb5, 0x63, 0xbd,
  0x28, 0x90, 0xdd, 0x3c, 0xa6, 0x33, 0xc3, 0x3d, 0x30, 0x3f, 0xa9, 0xbd,
  0x3b, 0x95, 0xe6, 0xbd, 0x70, 0x7b, 0x9a, 0x3c, 0x60, 0x8d, 0x2c, 0xbc,
  0x48, 0xfb, 0xd0, 0x3d, 0xb8, 0xca, 0x80, 0x3c, 0xeb, 0xa5, 0x7b, 0xbd,
  0xda, 0x58, 0xe6, 0xbd, 0xcc, 0xe1, 0x89, 0x3d, 0x80, 0xde, 0x9e, 0x3b,
  0x40, 0x66, 0x5a, 0xbd, 0x9a, 0x4e, 0xdb, 0x3d, 0x80, 0xb1, 0x3c, 0x3a,
  0x60, 0x0f, 0x62, 0xbb, 0xd4, 0xbc, 0xf1, 0x3d, 0x60, 0x24, 0xcc, 0x3b,
  0x38, 0xa6, 0x00, 0xbd, 0x8e, 0xc5, 0xea, 0x3d, 0x66, 0x0f, 0xd9, 0xbd,
  0xc8, 0xbd, 0xb8, 0x3c, 0x40, 0x9e, 0xc1, 0x3b, 0x15, 0x4d, 0x99, 0xbd,
  0xae, 0x33, 0xde, 0x3d, 0xf1, 0xe5, 0xa1, 0xbd, 0x60, 0x47, 0xb4, 0xbc,
  0xee, 0x12, 0x8e, 0xbd, 0x4c, 0x13, 0xba, 0x3d, 0x97, 0xcc, 0x8e, 0xbd,
  0xbb, 0x66, 0xe8, 0xbd, 0x90, 0xd0, 0x10, 0x3c, 0x02, 0x56, 0x99, 0x3d,
  0xd8, 0x5e, 0x6f, 0x3d, 0xd0, 0xe1, 0x1b, 0x3c, 0xf4, 0x3a, 0xf1, 0x3d,
  0xd6, 0xee, 0x89, 0x3d, 0x38, 0xe7, 0xa0, 0xbc, 0xa8, 0xcb, 0x52, 0x3d,
  0x62, 0x26, 0xe8, 0xbd, 0xf4, 0x2e, 0xb9, 0x3d, 0x92, 0xca, 0x8f, 0x3d,
  0xd5, 0x18, 0xe8, 0xbd, 0xec, 0xfc, 0xc4, 0xbc, 0x41, 0xc7, 0x82, 0xbd,
  0x60, 0xb9, 0xc1, 0xbc, 0xe2, 0x67, 0xbf, 0xbd, 0x48, 0x57, 0x61, 0x3d,
  0x2e, 0xae, 0xd6, 0x3d, 0x98, 0xb5, 0x93, 0xbd, 0x98, 0x3e, 0x87, 0x3d,
  0x28, 0xc8, 0xa4, 0xbc, 0x74, 0x80, 0xae, 0x3d, 0x5e, 0x7c, 0xa0, 0xbd,
  0x38, 0x59, 0xb1, 0x3c, 0x54, 0x9e, 0xc2, 0xbc, 0x10, 0x01, 0xd1, 0xbb,
  0x58, 0x12, 0xdf, 0xbc, 0xec, 0x23, 0x04, 0x3d, 0x70, 0xf7, 0xf9, 0x3c,
  0x88, 0x7a, 0x69, 0x3d, 0xa0, 0x30, 0x8e, 0x3d, 0x4a, 0xd1, 0xc4, 0xbd,
  0x14, 0x1c, 0xb9, 0xbd, 0x84, 0xf0, 0x88, 0xbc, 0xd2, 0x39, 0x8b, 0xbd,
  0xa0, 0x8d, 0xa2, 0x3d, 0x48, 0xc2, 0xd8, 0x3c, 0xc0, 0x90, 0xe8, 0xba,
  0x4e, 0x07, 0x9f, 0x3d, 0xb8, 0xc3, 0xeb, 0x3d, 0xe2, 0x9a, 0xf2, 0xbd,
  0xba, 0x5a, 0xb5, 0x3d, 0xdf, 0x47, 0x8c, 0xbd, 0x40, 0x60, 0x20, 0xbd,
  0xd8, 0xdd, 0x33, 0xbd, 0xe0, 0x21, 0xbd, 0x3c, 0x48, 0xa6, 0x18, 0x3d,
  0xa8, 0xc4, 0x92, 0x3c, 0x3c, 0x5c, 0x1b, 0x3d, 0xe8, 0xbb, 0x26, 0x3d,
  0x24, 0x6a, 0x24, 0x3d, 0x30, 0x4e, 0xe9, 0x3d, 0x00, 0x28, 0xb2, 0x39,
  0x90, 0xc7, 0x10, 0x3d, 0x80, 0x12, 0xa5, 0xba, 0x98, 0xc8, 0x53, 0x3d,
  0x5b, 0xae, 0x99, 0xbd, 0xe4, 0x86, 0x7f, 0x3d, 0x06, 0xe2, 0xd1, 0x3d,
  0x00, 0x9a, 0x00, 0xb9, 0x2a, 0x78, 0xb1, 0xbd, 0xfc, 0xb8, 0x07, 0x3d,
  0xac, 0xa6, 0xdb, 0xbc, 0xa0, 0x5f, 0x74, 0x3b, 0xc0, 0x1d, 0x55, 0x3d,
  0x80, 0x33, 0x50, 0xba, 0x90, 0xe0, 0xd4, 0xbb, 0x22, 0x7f, 0x4b, 0xbd,
  0xc0, 0x45, 0xdb, 0x3d, 0x14, 0x03, 0x7c, 0x3d, 0x60, 0x81, 0xc0, 0x3d,
  0x16, 0x17, 0xa7, 0x3d, 0x12, 0xcf, 0x97, 0x3d, 0xda, 0x1c, 0x08, 0xbd,
  0xe8, 0xa1, 0x93, 0xbc, 0xb6, 0x20, 0x9d, 0x3d, 0x50, 0x1d, 0x0e, 0x3d,
  0x3f, 0x05, 0x91, 0xbd, 0xc2, 0x35, 0xd6, 0xbd, 0x48, 0x4c, 0xa7, 0xbc,
  0xd6, 0xb6, 0xcd, 0x3d, 0x09, 0xf7, 0xc0, 0xbd, 0xe0, 0xb8, 0x1d, 0x3d,
  0xdd, 0x69, 0x72, 0xbd, 0x88, 0x50, 0x87, 0xbd, 0xe0, 0x2c, 0x94, 0x3d,
  0x68, 0x08, 0x98, 0x3c, 0x60, 0xf0, 0xf3, 0xbc, 0x70, 0xdb, 0xfd, 0xbb,
  0x64, 0x59, 0x8f, 0xbc, 0x7f, 0x93, 0xa1, 0xbd, 0x4e, 0x9d, 0x30, 0xbd,
  0x26, 0x23, 0xbb, 0x3d, 0x18, 0x4e, 0xa8, 0xbc, 0xf7, 0xd7, 0xb6, 0xbd,
  0xad, 0xcd, 0xce, 0xbd, 0x36, 0x08, 0xa0, 0x3d, 0x15, 0x5a, 0xe6, 0xbd,
  0x7e, 0xa9, 0x88, 0x3d, 0x14, 0x07, 0xd4, 0x3d, 0x68, 0xa6, 0xd3, 0x3c,
  0x0e, 0x84, 0x9c, 0x3d, 0x7c, 0xf9, 0xa4, 0x3d, 0x0e, 0x54, 0xd4, 0x3d,
  0x8e, 0x3a, 0x09, 0xbd, 0x38, 0x20, 0xa1, 0x3d, 0x98, 0xff, 0x42, 0x3d,
  0x9a, 0x63, 0xab, 0x3d, 0xc5, 0x16, 0x79, 0xbd, 0xac, 0xf1, 0x23, 0x3d,
  0xef, 0x37, 0xe0, 0xbd, 0x86, 0xba, 0x7e, 0xbd, 0x20, 0x04, 0xf8, 0x3c,
  0x8c, 0xf0, 0xe1, 0xbd, 0x04, 0x3b, 0x63, 0x3d, 0x92, 0x62, 0x66, 0xbd,
  0x3e, 0x84, 0xb7, 0xbd, 0xd8, 0x11, 0xf4, 0xbd, 0x80, 0x97, 0x71, 0x3b,
  0x3c, 0x51, 0x44, 0xbd, 0x90, 0x29, 0x0d, 0x3d, 0xe0, 0x65, 0x6b, 0x3b,
  0xd4, 0x4a, 0xc1, 0x3d, 0x10, 0xa4, 0xa9, 0xbc, 0x20, 0x8b, 0x9c, 0xbc,
  0xe0, 0xaf, 0x9e, 0xbc, 0x5c, 0x41, 0x92, 0x3d, 0xbc, 0x75, 0xca, 0xbc,
  0x9c, 0x19, 0xa9, 0x3d, 0x58, 0x31, 0x06, 0xbc, 0x94, 0x91, 0xea, 0x3d,
  0x44, 0x4e, 0xdc, 0x3d, 0x42, 0x03, 0x32, 0xbd, 0x9e, 0xb5, 0xf5, 0x3d,
  0xa4, 0xfe, 0x8b, 0x3d, 0x70, 0x48, 0x6e, 0x3d, 0x74, 0xe3, 0xe0, 0xbd,
  0x4c, 0x6e, 0x90, 0xbd, 0xba, 0x9e, 0xb1, 0x3d, 0x38, 0xe9, 0xac, 0x3d,
  0x48, 0x5e, 0x49, 0x3d, 0x18, 0xa5, 0xe8, 0x3c, 0x67, 0x77, 0x85, 0xbd,
  0xae, 0xf2, 0xda, 0x3d, 0x57, 0x7e, 0xea, 0xbd, 0xa8, 0xe1, 0xd1, 0x3c,
  0xa0, 0x56, 0xdd, 0x3c, 0xee, 0xd3, 0x11, 0xbd, 0x40, 0x7d, 0xe8, 0xbb,
  0xa8, 0x0c, 0x99, 0x3c, 0xa0, 0xb8, 0x27, 0xbd, 0x30, 0xf7, 0x3f, 0xbc,
  0x20, 0x25, 0xf8, 0x3d, 0x2b, 0x04, 0xf5, 0xbd, 0x18, 0x44, 0x17, 0xbc,
  0xfc, 0xb2, 0x30, 0xbd, 0x20, 0x46, 0x46, 0xbd, 0x90, 0xdc, 0x3d, 0xbd,
  0x4c, 0x49, 0xf7, 0x3d, 0x60, 0x26, 0xe7, 0x3b, 0xe0, 0x71, 0xe5, 0x3c,
  0x60, 0xda, 0x91, 0xbd, 0xe0, 0x48, 0xaa, 0xbb, 0x77, 0xfe, 0x8d, 0xbd,
  0xe0, 0x26, 0xca, 0x3d, 0xc5, 0x71, 0xdb, 0xbd, 0xf8, 0x66, 0xf7, 0x3c,
  0xa0, 0x65, 0x85, 0xbc, 0x10, 0x49, 0xa6, 0x3d, 0x08, 0xbd, 0xb9, 0xbd,
  0x72, 0x53, 0xd4, 0xbd, 0xf8, 0xee, 0x83, 0x3c, 0xc8, 0xcf, 0x1f, 0x3d,
  0xb8, 0x99, 0x83, 0x3c, 0xed, 0xbf, 0xad, 0xbd, 0xd4, 0x20, 0xe9, 0x3d,
  0xe8, 0x1f, 0xe4, 0x3d, 0x44, 0x25, 0xa8, 0xbd, 0x30, 0x25, 0x63, 0x3d,
  0x30, 0x22, 0xa0, 0x3d, 0xf4, 0x8f, 0x4e, 0xbd, 0x50, 0x8e, 0x7f, 0x3c,
  0x38, 0xa0, 0x0e, 0xbd, 0x90, 0x26, 0x06, 0x3c, 0xfe, 0xec, 0x3e, 0xbd,
  0x79, 0x29, 0x9e, 0xbd, 0xf4, 0x74, 0x98, 0x3d, 0x56, 0x5b, 0xf3, 0x3d,
  0xa4, 0x33, 0x85, 0x3d, 0xe0, 0xe1, 0xb8, 0xbb, 0x18, 0x24, 0x8f, 0xbc,
  0x0f, 0x98, 0xca, 0xbd, 0x6a, 0x98, 0x8f, 0x3d, 0x12, 0x89, 0xb0, 0x3d,
  0xf4, 0x1b, 0x37, 0xbd, 0xda, 0xea, 0xc7, 0x3d, 0x10, 0xea, 0x21, 0xbd,
  0x90, 0x71, 0xfa, 0x3c, 0x15, 0xc1, 0x8b, 0xbd, 0x60, 0x2d, 0x80, 0xbc,
  0xbe, 0x3d, 0xd3, 0x3d, 0xfd, 0xc1, 0xdf, 0xbd, 0xba, 0xcc, 0x81, 0x3d,
  0xe8, 0xea, 0x4e, 0x3d, 0x40, 0x9a, 0x0c, 0x3d, 0x80, 0x3c, 0x9c, 0x3c,
  0x14, 0x87, 0xa1, 0x3d, 0xae, 0x8b, 0xa4, 0xbd, 0x6d, 0x38, 0x9b, 0xbd,
  0x70, 0x96, 0xd8, 0x3c, 0xc0, 0xb8, 0x06, 0x3e, 0xc0, 0x50, 0x1d, 0x3d,
  0x4c, 0x94, 0x89, 0x3d, 0xf7, 0x41, 0x70, 0x3d, 0x6d, 0x12, 0xce, 0x3d,
  0xb9, 0x9f, 0x09, 0x3d, 0x0a, 0xdd, 0x5e, 0x3e, 0x72, 0x93, 0xea, 0x3d,
  0x86, 0xc3, 0xda, 0x3d, 0x4d, 0x4a, 0xf8, 0x3d, 0x2d, 0x91, 0xb5, 0x3d,
  0x46, 0xba, 0x85, 0x3d, 0xd4, 0x3e, 0x0f, 0x3e, 0x14, 0x11, 0x4e, 0x3e,
  0xc8, 0xd8, 0x58, 0x3e, 0x4b, 0x71, 0x1e, 0x3d, 0xed, 0xd1, 0xf1, 0x3d,
  0x90, 0xec, 0x1a, 0x3e, 0x3e, 0xce, 0x5f, 0x3e, 0xec, 0xec, 0xf8, 0x3a,
  0x9e, 0x22, 0x51, 0x3e, 0xda, 0x53, 0x91, 0x3d, 0x15, 0xb8, 0x0f, 0x3e,
  0xeb, 0xf4, 0x4b, 0x3c, 0xc6, 0x87, 0xae, 0x3c, 0xaa, 0xf1, 0xa1, 0xbc,
  0x7c, 0x5e, 0x01, 0xbd, 0x0c, 0xf4, 0x71, 0xbd, 0x6b, 0xf1, 0xa7, 0x3d,
  0x5a, 0xbe, 0xc9, 0xbc, 0x0a, 0x97, 0x4e, 0x3d, 0x1a, 0xd7, 0xc8, 0xbd,
  0x86, 0xfe, 0x04, 0xbe, 0x8b, 0x17, 0x78, 0xbc, 0xd9, 0xfe, 0xf2, 0x3c,
  0xa0, 0x4c, 0x3e, 0xbd, 0x46, 0xf4, 0x90, 0xbc, 0xc4, 0x03, 0x53, 0xbe,
  0x90, 0xc9, 0x2f, 0xbe, 0x53, 0xb2, 0x02, 0xbe, 0x2f, 0x2b, 0x21, 0xbe,
  0x1f, 0x55, 0x19, 0xbe, 0xf4, 0xb2, 0x99, 0xbd, 0x7e, 0xf8, 0x7a, 0xbd,
  0x34, 0xa8, 0x35, 0xbe, 0xec, 0x0f, 0x2a, 0xbe, 0x10, 0x7e, 0xdb, 0xbc,
  0x92, 0xcd, 0x26, 0xbe, 0x0a, 0xe4, 0x1f, 0xbd, 0xe9, 0x89, 0xb8, 0x3c,
  0xc6, 0x99, 0x89, 0x3b, 0xb6, 0x5d, 0x20, 0xbe, 0xef, 0xcf, 0x11, 0xbc,
  0x48, 0x40, 0x1d, 0xbe, 0x57, 0x3d, 0x7f, 0xbd, 0x59, 0x31, 0x98, 0x3b,
  0x30, 0xce, 0xa2, 0xbd, 0x1f, 0x87, 0xa4, 0xbd, 0x7a, 0x5b, 0x20, 0xbe,
  0x6a, 0x0c, 0x4a, 0xbe, 0x8a, 0xac, 0x29, 0xbe, 0xda, 0xeb, 0x2a, 0xbd,
  0x62, 0x37, 0xc3, 0xbc, 0x56, 0xb4, 0xb1, 0xbd, 0x24, 0x87, 0xd8, 0xbd,
  0x48, 0xfc, 0xeb, 0xbc, 0x18, 0xc6, 0x05, 0xbe, 0xb6, 0x24, 0xfc, 0xbb,
  0xf2, 0x70, 0xa5, 0xbd, 0xfb, 0xe0, 0xdd, 0xbd, 0x2d, 0xaa, 0xe4, 0xbd,
  0xae, 0xdc, 0x75, 0xbc, 0x7d, 0xa3, 0x11, 0xbe, 0x13, 0x71, 0x1b, 0xbe,
  0x1d, 0xea, 0x89, 0x3b, 0xca, 0x59, 0xdd, 0x3b, 0xf7, 0x00, 0x13, 0xbd,
  0xc2, 0xc1, 0xd1, 0x3c, 0x49, 0xcf, 0x3e, 0x3d, 0x12, 0x23, 0xb8, 0x3d,
  0x86, 0xbb, 0x9c, 0xbd, 0x9c, 0x0d, 0x79, 0xbd, 0x69, 0xf0, 0x94, 0xbc,
  0x65, 0xf6, 0x93, 0x3c, 0x46, 0x96, 0x3b, 0xbc, 0xab, 0x00, 0xba, 0x3d,
  0x8e, 0x76, 0x53, 0x3d, 0xbb, 0x94, 0xc9, 0x3d, 0x05, 0x3c, 0x4d, 0xbd,
  0xce, 0x64, 0x87, 0x3d, 0x72, 0xb2, 0x6c, 0x3c, 0x14, 0x63, 0x4c, 0x3d,
  0xae, 0x1b, 0x1b, 0x3d, 0xc9, 0xef, 0x9e, 0xbd, 0xee, 0x2e, 0x2e, 0xbd,
  0xab, 0x76, 0xe7, 0x3d, 0x25, 0x01, 0x99, 0x3a, 0x02, 0x14, 0x90, 0x3d,
  0x72, 0x01, 0x78, 0x3d, 0xdc, 0xd2, 0x86, 0xbd, 0xa7, 0x03, 0x81, 0x3d,
  0x76, 0x98, 0x9e, 0x39, 0x75, 0x3b, 0x37, 0x3d, 0x98, 0xdb, 0x56, 0x3d,
  0x19, 0xe6, 0x80, 0x3d, 0x49, 0x37, 0xa8, 0x3d, 0xe4, 0x44, 0xbb, 0x3d,
  0xe3, 0xe8, 0x25, 0xbd, 0xda, 0xc5, 0xa8, 0x3d, 0x7b, 0x92, 0xb8, 0x3c,
  0x2f, 0x8c, 0xcc, 0x3d, 0x44, 0x23, 0xd5, 0xbb, 0xd3, 0x98, 0x92, 0xbd,
  0xfe, 0xc1, 0xfc, 0x3d, 0xf5, 0x35, 0x09, 0xbc, 0x2a, 0xa3, 0x39, 0xbd,
  0xb6, 0xc0, 0x58, 0x3c, 0x71, 0x26, 0x60, 0x3d, 0x9f, 0x32, 0x55, 0xbd,
  0x2e, 0x81, 0x0a, 0x3d, 0x50, 0x02, 0xe0, 0xbd, 0xb6, 0x46, 0xda, 0x3d,
  0x31, 0x1a, 0x6b, 0x3d, 0x32, 0x56, 0x2d, 0x3d, 0xcf, 0x5b, 0x76, 0x3d,
  0x9c, 0x58, 0x21, 0x3d, 0xa4, 0x8c, 0x46, 0x3d, 0xfc, 0xff, 0x90, 0x3d,
  0x40, 0x4d, 0xa8, 0x3c, 0x06, 0xed, 0x66, 0xbd, 0x48, 0x06, 0x65, 0x3d,
  0xb2, 0x98, 0x63, 0xbd, 0x76, 0x4f, 0xbf, 0x3d, 0xa4, 0x54, 0xe1, 0xbd,
  0x8e, 0x7b, 0x96, 0x3d, 0x7c, 0xcb, 0xdd, 0xbd, 0xe6, 0x04, 0xc3, 0xbd,
  0xc4, 0xff, 0x44, 0x3d, 0x00, 0x5c, 0x3c, 0xba, 0xc8, 0x83, 0x49, 0xbd,
  0x18, 0xb1, 0x09, 0xbd, 0x15, 0x6b, 0xbe, 0xbd, 0xb0, 0x3f, 0xc3, 0x3c,
  0x30, 0x38, 0x9b, 0xbc, 0xc0, 0x40, 0x2b, 0xbc, 0xe4, 0x82, 0x01, 0x3d,
  0x52, 0x49, 0x8d, 0x3d, 0x78, 0x17, 0x35, 0xbd, 0x6a, 0x84, 0x6c, 0xbd,
  0xde, 0xc7, 0x8d, 0x3d, 0x93, 0xd3, 0xc5, 0xbd, 0x6a, 0xa3, 0xf0, 0x3d,
  0xde, 0xa7, 0xd7, 0x3d, 0x60, 0xe4, 0xc3, 0x3b, 0xf2, 0x6e, 0xb3, 0xbd,
  0xb8, 0xc1, 0x50, 0x3d, 0xa0, 0xed, 0xcf, 0x3d, 0x20, 0x94, 0xa8, 0x3d,
  0xb5, 0xbe, 0xf5, 0xbd, 0xb0, 0x40, 0xba, 0x3c, 0x68, 0x2b, 0x6c, 0x3d,
  0xdc, 0xc1, 0xd0, 0x3d, 0x37, 0x7e, 0xc2, 0xbd, 0xec, 0xbf, 0x92, 0x3d,
  0x00, 0x66, 0x26, 0x3b, 0x7e, 0x01, 0xcd, 0x3d, 0xa0, 0xde, 0x94, 0xbd,
  0x50, 0xbd, 0x84, 0x3c, 0x80, 0x3c, 0xb8, 0x3a, 0x00, 0x8f, 0xef, 0x3d,
  0x60, 0xe7, 0xe6, 0x3c, 0x10, 0x0d, 0x0d, 0xbc, 0x44, 0x88, 0x0e, 0x3d,
  0xf9, 0x2e, 0xe5, 0xbd, 0xf0, 0xe9, 0x29, 0x3d, 0xf0, 0xc3, 0x06, 0x3c,
  0xa8, 0xb2, 0x20, 0x3d, 0x80, 0xf0, 0x9c, 0x3b, 0xfa, 0x51, 0x40, 0xbd,
  0x10, 0x53, 0xfc, 0xbc, 0x86, 0x31, 0xf5, 0x3d, 0xc8, 0xed, 0x3d, 0xbd,
  0x74, 0x72, 0x76, 0x3d, 0x92, 0xd6, 0x42, 0xbd, 0xc0, 0xff, 0x93, 0xbd,
  0xe2, 0x6c, 0xc8, 0xbd, 0xd0, 0x7e, 0x1f, 0xbd, 0xe7, 0x7f, 0x97, 0xbd,
  0xca, 0x60, 0xc6, 0xbd, 0x46, 0x19, 0x29, 0xbd, 0xe6, 0x9d, 0x82, 0xbd,
  0x40, 0x6b, 0xda, 0xbc, 0x48, 0x1e, 0xaf, 0x3d, 0xdc, 0x69, 0xba, 0xbc,
  0x26, 0xd5, 0xc6, 0xbd, 0x08, 0xd5, 0xe1, 0x3c, 0xc0, 0xa6, 0x03, 0xbb,
  0x5a, 0xfd, 0x8b, 0xbd, 0x00, 0x69, 0x57, 0x3a, 0x0c, 0x9d, 0x37, 0x3d,
  0xcc, 0x9f, 0x7a, 0xbd, 0x48, 0x01, 0x67, 0xbd, 0xc0, 0x59, 0x92, 0x3b,
  0x06, 0xef, 0xce, 0x3d, 0x00, 0xb3, 0xa8, 0x3d, 0x5f, 0xde, 0xc0, 0xbd,
  0xb0, 0x56, 0xbb, 0x3c, 0x6a, 0x69, 0x1d, 0xbd, 0xea, 0x1d, 0x6b, 0xbd,
  0x00, 0x2c, 0x29, 0x3c, 0x80, 0x72, 0xf2, 0x3d, 0x92, 0x42, 0xdd, 0x3d,
  0xc4, 0x85, 0x02, 0x3d, 0x10, 0x7c, 0xb9, 0xbd, 0xe2, 0xec, 0xdf, 0x3d,
  0x8e, 0xb3, 0x22, 0xbd, 0x5e, 0xda, 0x8e, 0xbd, 0x4c, 0x2c, 0x36, 0x3d,
  0xce, 0x59, 0xa4, 0x3d, 0x92, 0x0b, 0x95, 0x3d, 0xd4, 0x93, 0x8d, 0x3d,
  0x00, 0x1a, 0x9f, 0xbb, 0x60, 0x4c, 0x11, 0x3c, 0x00, 0xce, 0x5b, 0x3a,
  0xa4, 0xee, 0x52, 0x3d, 0x5c, 0xf9, 0x26, 0x3d, 0x00, 0x72, 0x32, 0xb9,
  0x81, 0x53, 0xc4, 0xbd, 0xeb, 0xe3, 0x7a, 0xbd, 0x80, 0xcd, 0x67, 0x3d,
  0x34, 0x84, 0x1f, 0x3d, 0x78, 0xea, 0x92, 0xbd, 0xd8, 0x68, 0x33, 0xbc,
  0xe6, 0xc0, 0xa0, 0xbd, 0x19, 0xbb, 0xe5, 0xbd, 0x0e, 0x93, 0x90, 0x3d,
  0x92, 0x60, 0x93, 0xbd, 0x52, 0xf9, 0x61, 0xbd, 0x3b, 0x91, 0x8a, 0xbd,
  0x8a, 0xe7, 0xa0, 0x3d, 0x74, 0xe6, 0xed, 0xbd, 0x14, 0xa5, 0xe7, 0x3d,
  0x80, 0x4e, 0x97, 0x3c, 0x82, 0xdf, 0x8f, 0x3d, 0x5b, 0xb6, 0xf1, 0xbd,
  0x40, 0x25, 0xf5, 0xbc, 0x84, 0x31, 0x5d, 0x3d, 0x80, 0xd9, 0x37, 0xbc,
  0x18, 0x32, 0x1c, 0x3d, 0x52, 0x00, 0x9d, 0x3d, 0x60, 0x12, 0x9e, 0x3b,
  0x2c, 0x51, 0x86, 0xbd, 0x90, 0xbb, 0x98, 0x3d, 0x52, 0xc6, 0x19, 0xbd,
  0x00, 0x74, 0x15, 0x3c, 0x83, 0xa9, 0xee, 0xbd, 0xd0, 0x64, 0xcd, 0x3d,
  0xbb, 0xae, 0x96, 0xbd, 0xec, 0x3e, 0x75, 0x3d, 0x88, 0xa5, 0xd8, 0xbc,
  0x96, 0x92, 0x98, 0xbd, 0x54, 0x50, 0xce, 0x3d, 0xe0, 0xa6, 0x4e, 0x3b,
  0x24, 0x65, 0x04, 0xbd, 0xa4, 0xf2, 0xae, 0xbd, 0x56, 0xdb, 0xce, 0x3d,
  0xf5, 0x0d, 0x8a, 0xbd, 0x24, 0x81, 0x73, 0xbd, 0x00, 0xa3, 0x43, 0xbd,
  0x41, 0x0c, 0xe7, 0xbd, 0x5b, 0xed, 0xf4, 0xbd, 0x3f, 0x0f, 0x72, 0xbd,
  0x4a, 0x64, 0xa6, 0xbd, 0x62, 0x81, 0xce, 0x3d, 0xe4, 0xf3, 0xf3, 0xbd,
  0xb2, 0xe2, 0x2b, 0xbd, 0x36, 0xee, 0x5d, 0xbd, 0x68, 0xab, 0x1a, 0xbc,
  0x28, 0x19, 0x4a, 0xbd, 0xfc, 0xd2, 0x9b, 0x3d, 0x58, 0xf8, 0xfd, 0xbc,
  0xe8, 0x4e, 0xd5, 0x3c, 0x7e, 0xac, 0x8c, 0x3d, 0x8a, 0xfd, 0x4f, 0xbd,
  0x29, 0x9f, 0x9f, 0xbd, 0xc1, 0x6b, 0xd2, 0xbd, 0x80, 0x68, 0x4a, 0x3c,
  0x7f, 0x72, 0xdf, 0xbd, 0x4c, 0x7e, 0x40, 0xbd, 0xa4, 0x41, 0xc2, 0xbd,
  0x14, 0x65, 0xdc, 0x3d, 0x40, 0xc8, 0x0b, 0xbb, 0x80, 0x0e, 0xb5, 0xbd,
  0x50, 0x1f, 0xff, 0x3c, 0xa0, 0x8d, 0x22, 0x3d, 0x18, 0x71, 0x2d, 0x3d,
  0x40, 0x01, 0x9f, 0x3a, 0x36, 0x8f, 0xb9, 0x3d, 0x40, 0x77, 0x8a, 0x3c,
  0x60, 0xb2, 0x07, 0xbc, 0xb8, 0x79, 0x96, 0x3d, 0x28, 0x72, 0xd9, 0x3d,
  0x92, 0x91, 0xf5, 0x3d, 0x62, 0x1b, 0x57, 0xbd, 0xc4, 0x92, 0x9a, 0xbd,
  0x66, 0xaf, 0xe4, 0x3d, 0xb0, 0x48, 0xa6, 0x3c, 0x6e, 0xf3, 0xb7, 0x3d,
  0xf6, 0xb1, 0xae, 0xbd, 0x1d, 0x76, 0xf5, 0xbd, 0xa0, 0xa4, 0x34, 0x3c,
  0xdc, 0xac, 0xb8, 0xbc, 0xf4, 0xa2, 0x57, 0x3d, 0x2a, 0xb0, 0xa0, 0x3d,
  0x3a, 0x27, 0xc4, 0x3d, 0x0c, 0xe6, 0xa4, 0xbc, 0xb2, 0xb9, 0xdb, 0x3d,
  0x48, 0x34, 0x1e, 0xbc, 0x92, 0xc0, 0x05, 0xbd, 0x98, 0xb6, 0x59, 0xbd,
  0xe4, 0x5b, 0xc1, 0xbc, 0x90, 0x15, 0x48, 0x3c, 0x8a, 0x87, 0x8b, 0x3d,
  0x78, 0xcf, 0xa7, 0x3d, 0x28, 0x6c, 0x6d, 0xbc, 0x78, 0xa7, 0xeb, 0xbc,
  0xce, 0x99, 0xc6, 0xbd, 0x7c, 0x00, 0x57, 0xbd, 0x8c, 0xe4, 0x2a, 0x3d,
  0x00, 0xe2, 0x09, 0x3d, 0xf4, 0x3f, 0x4c, 0xbd, 0x33, 0xc7, 0xb6, 0xbd,
  0x72, 0x66, 0x45, 0xbd, 0x38, 0xbf, 0xd1, 0xbd, 0xca, 0xfc, 0x8f, 0x3d,
  0x00, 0x17, 0xd3, 0xba, 0xe8, 0xc5, 0x7a, 0x3d, 0x0d, 0x84, 0xca, 0xbd,
  0x69, 0x36, 0xb9, 0xbd, 0x00, 0x25, 0x64, 0xbb, 0x70, 0x52, 0x4f, 0x3c,
  0xb4, 0xe1, 0xae, 0xbc, 0xf0, 0x17, 0x38, 0xbc, 0x5c, 0xce, 0xad, 0x3d,
  0xa6, 0xeb, 0xa4, 0xbd, 0x9c, 0xb3, 0x80, 0xbc, 0x04, 0xab, 0xd0, 0xbd,
  0xee, 0x19, 0x86, 0x3d, 0x14, 0x38, 0x51, 0x3d, 0x40, 0x9a, 0x85, 0x3a,
  0xc8, 0xbb, 0xa7, 0x3c, 0xa6, 0xfc, 0xd3, 0xbd, 0x30, 0x9c, 0x08, 0x3c,
  0xc2, 0x8c, 0xd4, 0x3d, 0xf4, 0x6a, 0x59, 0x3d, 0xa2, 0xbb, 0x58, 0xbd,
  0x60, 0xcb, 0x9b, 0xbd, 0xaa, 0xb5, 0x2c, 0xbd, 0xec, 0x7d, 0x32, 0xbd,
  0x64, 0x85, 0xf2, 0x3d, 0x50, 0x3c, 0x5d, 0xbd, 0x01, 0xd6, 0xab, 0xbd,
  0x6c, 0x3b, 0x9d, 0xbd, 0xb0, 0x52, 0xb4, 0x3d, 0xc2, 0x17, 0xa0, 0x3d,
  0x00, 0xa1, 0x25, 0x3a, 0x50, 0xbe, 0xfc, 0xbc, 0x00, 0xaa, 0xd2, 0x3b,
  0x00, 0xa3, 0xa2, 0x3c, 0xe8, 0xe3, 0x12, 0x3d, 0x7e, 0x16, 0x9e, 0x3d,
  0x8c, 0x4e, 0x72, 0x3d, 0x5c, 0x1a, 0xa3, 0x3d, 0x06, 0xa4, 0xb0, 0xbd,
  0xe3, 0x0a, 0xdb, 0xbd, 0x24, 0x98, 0x54, 0xbd, 0xb0, 0xb9, 0xac, 0x3c,
  0x10, 0x79, 0x87, 0x3c, 0x24, 0x69, 0xc3, 0x3d, 0x40, 0x71, 0xdd, 0xbc,
  0xd7, 0x5b, 0xea, 0xbd, 0x7a, 0x22, 0xea, 0x3d, 0xd3, 0xda, 0xed, 0x3d,
  0x29, 0x83, 0x13, 0x3d, 0x42, 0xc5, 0x82, 0x3c, 0x6f, 0x0b, 0xa9, 0xbd,
  0xdf, 0x62, 0xc3, 0x3c, 0x36, 0x2c, 0xa9, 0xbc, 0xc5, 0xea, 0xbb, 0x3d,
  0x14, 0xa6, 0x13, 0x3e, 0x7a, 0xc1, 0x5b, 0x3c, 0xb5, 0x7d, 0xad, 0x3c,
  0x7d, 0x2c, 0x2b, 0x3e, 0xe3, 0xbe, 0xc0, 0x3d, 0xaa, 0x66, 0xdf, 0x3d,
  0x85, 0x22, 0xb6, 0x3c, 0x86, 0xf3, 0x4f, 0x3d, 0x18, 0xe5, 0xf8, 0xbc,
  0xd1, 0x15, 0x51, 0xbd, 0x18, 0xa2, 0x34, 0x3e, 0x9e, 0x0a, 0x5b, 0xbd,
  0x59, 0x2e, 0x77, 0x3d, 0xeb, 0x99, 0xbc, 0x3d, 0x87, 0xa5, 0xbb, 0x3d,
  0xa1, 0xd6, 0x6a, 0xbd, 0xf1, 0xe2, 0x18, 0x3e, 0x33, 0x06, 0x63, 0xbd,
  0xa9, 0x2f, 0x50, 0x3d, 0xbd, 0x7a, 0x1d, 0x3c, 0xd5, 0xe6, 0xb3, 0xbc,
  0xfc, 0xb1, 0xf1, 0xbd, 0xb4, 0x3a, 0x0c, 0xbe, 0xad, 0xac, 0x91, 0xbd,
  0x2b, 0x76, 0x5f, 0x3d, 0xe2, 0x7e, 0xd1, 0x3a, 0x43, 0x9a, 0x5b, 0x3c,
  0xa3, 0xf6, 0x5b, 0x3d, 0xe9, 0x46, 0x52, 0xbd, 0x1a, 0x7d, 0xcf, 0xbd,
  0x11, 0x74, 0xbc, 0xbd, 0xe6, 0xe5, 0x54, 0xbe, 0x1a, 0x1f, 0x9c, 0xbd,
  0xb9, 0x49, 0x07, 0xbe, 0x7b, 0xbc, 0xfe, 0xbd, 0x18, 0x50, 0x04, 0xbe,
  0x05, 0xf1, 0x3b, 0xbe, 0xf7, 0xbc, 0x63, 0xbd, 0xbf, 0x41, 0x67, 0xbe,
  0xa7, 0xc3, 0xa5, 0xbd, 0xfe, 0x7e, 0x65, 0xbe, 0x2b, 0x9f, 0xd9, 0xbd,
  0xc8, 0x27, 0x49, 0xbe, 0xd6, 0xe1, 0x28, 0xbe, 0x66, 0x64, 0xc2, 0xbc,
  0xc9, 0xd7, 0x13, 0xbd, 0x36, 0x61, 0x25, 0xbe, 0x21, 0x9b, 0x58, 0xbd,
  0x42, 0xb6, 0x14, 0xbe, 0x37, 0xc5, 0xb6, 0xbc, 0x73, 0xad, 0x1c, 0xbe,
  0xc5, 0x5d, 0x46, 0xbe, 0x4a, 0x3e, 0x02, 0xbe, 0xd7, 0xb5, 0xf6, 0xbc,
  0xad, 0xda, 0x62, 0xbe, 0x18, 0x04, 0x31, 0xbd, 0xb2, 0x89, 0x91, 0xbd,
  0xa5, 0x62, 0x39, 0xbd, 0x6b, 0x57, 0x32, 0xbd, 0x1d, 0x08, 0xc1, 0xbd,
  0x0c, 0x94, 0xce, 0xbc, 0x55, 0xb1, 0xa4, 0xbd, 0x4d, 0xe5, 0xaa, 0x3c,
  0x74, 0xd8, 0x2f, 0xbe, 0x7a, 0x12, 0x67, 0xbc, 0x71, 0x80, 0x1c, 0xbd,
  0xeb, 0x03, 0x13, 0x3d, 0x1e, 0x91, 0x2c, 0x3d, 0x1b, 0x24, 0xba, 0xbc,
  0xd9, 0xb7, 0x75, 0x3d, 0x66, 0x6c, 0x44, 0xbd, 0xd5, 0x1a, 0x69, 0x3d,
  0xb9, 0xcf, 0x91, 0x3d, 0xb8, 0x60, 0x6e, 0x3d, 0xa7, 0xff, 0x62, 0xbd,
  0x02, 0x24, 0xd4, 0x3d, 0x89, 0x32, 0x22, 0x3d, 0x48, 0x3c, 0xb8, 0xbd,
  0xc5, 0xf9, 0xa7, 0x3d, 0xaa, 0x7d, 0xfc, 0x3d, 0xa4, 0x99, 0x99, 0xbd,
  0xe4, 0xd3, 0x09, 0xbd, 0xaf, 0x7b, 0xa8, 0x3d, 0xe5, 0xac, 0xcc, 0xbc,
  0x22, 0x45, 0xf2, 0x3d, 0x9e, 0x3e, 0x5f, 0xbd, 0x82, 0x00, 0xb0, 0xbd,
  0x00, 0xda, 0x5e, 0xbd, 0x4b, 0xa9, 0xaf, 0xbc, 0xf0, 0xc8, 0xb0, 0x3d,
  0x9b, 0xe1, 0x22, 0xbc, 0x61, 0x42, 0x4f, 0xbd, 0x7a, 0x7e, 0xbe, 0x3d,
  0xd7, 0x6c, 0x73, 0x3d, 0xb6, 0x4e, 0x7e, 0xbb, 0x7e, 0x69, 0x15, 0xbd,
  0xe9, 0x90, 0x17, 0xbd, 0x03, 0x17, 0x97, 0xbd, 0xa6, 0xd0, 0x6c, 0xbd,
  0x09, 0xb2, 0x23, 0xbd, 0x1b, 0xbe, 0x03, 0xbe, 0x64, 0xef, 0x01, 0xbe,
  0xa2, 0x8e, 0xa0, 0x3d, 0xd5, 0x33, 0x88, 0x3d, 0xdc, 0x8e, 0xbc, 0xbd,
  0x16, 0x16, 0x84, 0xbb, 0x92, 0xb7, 0xf4, 0xbb, 0xc9, 0x62, 0x93, 0xbd,
  0xb9, 0x43, 0xd4, 0x3d, 0x79, 0x55, 0xe7, 0xbc, 0xae, 0x9d, 0xd3, 0xbd,
  0x23, 0xf8, 0x44, 0xbd, 0xd0, 0xa1, 0x05, 0x3c, 0xc6, 0xa2, 0x59, 0x3d,
  0xfd, 0xa3, 0x59, 0x3c, 0x67, 0x8f, 0xaf, 0xbd, 0xae, 0xf5, 0xa2, 0x3d,
  0x66, 0x03, 0xe7, 0xbd, 0x5b, 0xde, 0x13, 0x3d, 0x12, 0x1a, 0x28, 0xbd,
  0x21, 0x56, 0x42, 0x3c, 0x14, 0x2e, 0x73, 0x3d, 0xa4, 0x8f, 0xaa, 0x3d,
  0xac, 0x85, 0x4e, 0x3d, 0xdd, 0xdd, 0x78, 0xbd, 0x0c, 0xc0, 0x07, 0x3d,
  0xd2, 0x95, 0xa3, 0x3d, 0xc0, 0x63, 0xc9, 0x3b, 0xb9, 0x1e, 0x7e, 0xbd,
  0xf2, 0x40, 0xca, 0xbd, 0x10, 0x28, 0xdd, 0xbb, 0x50, 0x50, 0xff, 0x3c,
  0xcb, 0xb9, 0xbc, 0xbd, 0x18, 0x81, 0xe8, 0xbc, 0xf0, 0x30, 0xe3, 0xbd,
  0xc0, 0xa6, 0xd6, 0x3a, 0x78, 0xda, 0xb5, 0xbd, 0x50, 0x93, 0x95, 0xbd,
  0xf8, 0x3f, 0xdc, 0x3d, 0x18, 0xf5, 0x92, 0x3c, 0x98, 0x47, 0xb2, 0xbd,
  0x38, 0x53, 0x60, 0xbc, 0x5e, 0x60, 0x80, 0x3d, 0x7a, 0xbe, 0x5a, 0xbd,
  0xd2, 0x03, 0xe0, 0xbd, 0x40, 0x52, 0x44, 0xbb, 0x88, 0xc8, 0xab, 0x3d,
  0x30, 0x6f, 0x00, 0x3d, 0xc0, 0x60, 0xa9, 0x3c, 0xf0, 0x50, 0x39, 0x3c,
  0x30, 0xc4, 0x0d, 0xbc, 0xb0, 0x79, 0x88, 0x3c, 0xe8, 0xf5, 0x0c, 0xbd,
  0x71, 0x63, 0x91, 0xbd, 0xd4, 0xbb, 0xc8, 0xbd, 0x84, 0x60, 0xc6, 0x3d,
  0x96, 0x8a, 0xca, 0x3d, 0x18, 0x89, 0xf8, 0xbc, 0xb0, 0x28, 0x4d, 0x3d,
  0x18, 0x64, 0x6a, 0x3d, 0x48, 0xff, 0x43, 0xbd, 0x07, 0x92, 0x98, 0xbd,
  0x5e, 0x5d, 0x88, 0x3d, 0x06, 0x4b, 0xe3, 0x3d, 0xd1, 0x48, 0xe6, 0xbd,
  0x0f, 0xa9, 0xe9, 0xbd, 0xc4, 0x38, 0xf5, 0x3d, 0xac, 0x8f, 0x16, 0xbd,
  0x30, 0x2d, 0xe4, 0xbc, 0x2a, 0xd0, 0xa0, 0xbd, 0x90, 0xbb, 0x37, 0x3c,
  0x0c, 0x23, 0x62, 0x3d, 0x7f, 0x83, 0xc0, 0xbd, 0x48, 0x66, 0x79, 0xbc,
  0x99, 0x67, 0xa9, 0xbd, 0x26, 0xbd, 0x80, 0xbd, 0x20, 0x4b, 0xe4, 0x3b,
  0xe0, 0x84, 0x0c, 0xbc, 0xb0, 0x32, 0xb8, 0x3d, 0xca, 0xd0, 0xc9, 0x3d,
  0x30, 0xba, 0x7f, 0x3d, 0x7a, 0x93, 0xf4, 0x3d, 0xc0, 0xf2, 0x13, 0x3d,
  0x54, 0x74, 0x4f, 0xbd, 0x8d, 0x5d, 0xde, 0xbd, 0x2a, 0xa1, 0xd4, 0xbd,
  0x88, 0x61, 0x50, 0x3d, 0xd8, 0xc3, 0xa9, 0xbc, 0x84, 0xbf, 0xbd, 0xbc,
  0x8c, 0x0d, 0xbd, 0x3d, 0x10, 0x76, 0x2d, 0xbd, 0x88, 0xee, 0x84, 0xbc,
  0xac, 0x58, 0x8e, 0x3d, 0x3c, 0x99, 0x4d, 0xbd, 0x70, 0x4f, 0x6f, 0x3c,
  0x80, 0x71, 0xcf, 0x3a, 0x30, 0xaa, 0xd3, 0x3d, 0x48, 0xa3, 0xaa, 0x3c,
  0xd0, 0x44, 0xce, 0x3d, 0xc4, 0xee, 0x90, 0x3d, 0x58, 0x2b, 0x98, 0x3d,
  0xc8, 0xa7, 0xdb, 0x3d, 0xc8, 0x48, 0xa0, 0xbc, 0xac, 0x4d, 0xcc, 0x3d,
  0xe4, 0xcb, 0xc8, 0x3d, 0xaa, 0x23, 0x54, 0xbd, 0xa0, 0x4d, 0x88, 0xbb,
  0xa0, 0x86, 0x1f, 0xbb, 0x5c, 0x19, 0xed, 0xbd, 0x34, 0xe0, 0x86, 0xbd,
  0xd4, 0x8a, 0x03, 0xbd, 0x68, 0x0f, 0x83, 0x3d, 0x40, 0xcf, 0x05, 0x3c,
  0x60, 0x7c, 0x83, 0x3c, 0x48, 0x90, 0x8e, 0x3c, 0x74, 0x83, 0xc7, 0xbd,
  0xb8, 0x3a, 0xc8, 0x3d, 0x60, 0xa1, 0x89, 0xbb, 0x26, 0x9a, 0x95, 0xbd,
  0x08, 0xa6, 0x54, 0x3d, 0xe0, 0x4e, 0x77, 0x3c, 0xd4, 0x8d, 0xd6, 0xbd,
  0x78, 0x04, 0xba, 0x3c, 0x60, 0x1f, 0x8d, 0x3c, 0xe1, 0x03, 0x9a, 0xbd,
  0x18, 0xd6, 0x29, 0x3d, 0x18, 0x4c, 0x34, 0xbc, 0x09, 0xa0, 0xda, 0xbd,
  0xa4, 0x78, 0xc4, 0xbd, 0xa8, 0xae, 0x9b, 0x3c, 0x0a, 0x8c, 0xce, 0x3d,
  0x1c, 0xde, 0xa4, 0xbc, 0x04, 0xbd, 0x8c, 0x3d, 0x2a, 0xd1, 0xe2, 0xbd,
  0x06, 0x0c, 0xe0, 0x3d, 0x60, 0x6a, 0x8b, 0x3d, 0x70, 0xbd, 0x3f, 0x3c,
  0xe8, 0xb8, 0xd3, 0xbd, 0xaa, 0x97, 0xbe, 0x3d, 0xf7, 0xe7, 0xe6, 0xbd,
  0xac, 0x92, 0x9e, 0xbd, 0x71, 0x3b, 0xf8, 0xbd, 0xcc, 0x40, 0x3c, 0xbd,
  0x57, 0xa3, 0x87, 0xbd, 0x84, 0x3c, 0x37, 0x3d, 0x4c, 0x02, 0xd5, 0xbd,
  0x3e, 0xd6, 0xdf, 0x3d, 0xcc, 0xfd, 0xb6, 0x3d, 0x3d, 0xf0, 0xb9, 0xbd,
  0xd8, 0xca, 0x11, 0x3d, 0x15, 0xde, 0xc0, 0xbd, 0x92, 0xfc, 0x57, 0xbd,
  0xd0, 0x27, 0xcb, 0x3c, 0x4c, 0x5d, 0x8b, 0xbc, 0xdc, 0x1f, 0x20, 0x3d,
  0x38, 0x17, 0x98, 0x3c, 0xc4, 0x16, 0x97, 0x3d, 0x44, 0x5e, 0xe1, 0xbd,
  0x52, 0x07, 0x64, 0xbd, 0x40, 0x87, 0x57, 0x3d, 0x52, 0xa1, 0x2e, 0xbd,
  0x20, 0xbd, 0xef, 0x3b, 0x10, 0xef, 0xa2, 0xbb, 0x1c, 0x00, 0x19, 0x3d,
  0x70, 0xb9, 0x75, 0x3d, 0x0d, 0xb6, 0xb3, 0xbd, 0x5a, 0xdd, 0xe2, 0x3d,
  0x98, 0xc9, 0x63, 0xbd, 0x4b, 0xe5, 0xb9, 0xbd, 0x18, 0x24, 0x6d, 0xbd,
  0x48, 0xf8, 0x29, 0x3d, 0xf6, 0x23, 0xa5, 0xbd, 0x33, 0x96, 0xde, 0xbd,
  0xae, 0x87, 0xc0, 0xbd, 0x74, 0x28, 0x91, 0xbc, 0xbb, 0x3e, 0xdb, 0xbd,
  0x20, 0x4b, 0x7a, 0x3d, 0xd6, 0x5c, 0x14, 0xbd, 0x1a, 0x1f, 0x9a, 0xbd,
  0x7a, 0xcf, 0x80, 0x3d, 0xa6, 0xca, 0xaf, 0xbd, 0x48, 0x1e, 0x93, 0xbd,
  0x84, 0xd8, 0x41, 0x3d, 0x60, 0xd0, 0xae, 0x3b, 0x68, 0x36, 0x7d, 0xbd,
  0xb8, 0x20, 0xa4, 0xbd, 0xb8, 0x9a, 0x49, 0xbc, 0x58, 0x38, 0xc4, 0x3d,
  0x8c, 0xbd, 0x98, 0x3d, 0x8e, 0xac, 0x90, 0xbd, 0x9b, 0x4e, 0xa8, 0xbd,
  0xa6, 0x65, 0xd9, 0x3d, 0x0c, 0x2b, 0xaf, 0x3d, 0x00, 0xaa, 0xe3, 0xb9,
  0xbc, 0xcf, 0x9d, 0x3d, 0x49, 0xc0, 0x75, 0xbd, 0x50, 0x13, 0x8d, 0x3c,
  0x3e, 0xae, 0x9e, 0x3d, 0x2c, 0x1e, 0x45, 0x3d, 0xde, 0xab, 0xdb, 0x3d,
  0x10, 0x3d, 0xb7, 0xbc, 0xfa, 0x5a, 0xde, 0x3d, 0x58, 0xab, 0x7b, 0xbd,
  0x16, 0xa9, 0x8a, 0x3d, 0x18, 0x74, 0xdf, 0xbc, 0xab, 0x69, 0xd0, 0xbd,
  0xfa, 0xdf, 0x49, 0xbd, 0x70, 0xda, 0xad, 0x3d, 0x3c, 0xf6, 0xf5, 0x3d,
  0xb8, 0x8c, 0x87, 0xbc, 0x6e, 0x73, 0xa6, 0x3d, 0xfa, 0x11, 0xb7, 0xbd,
  0x98, 0xc8, 0x01, 0xbd, 0x86, 0x14, 0xf5, 0xbd, 0x24, 0x19, 0x35, 0x3d,
  0xd8, 0xf8, 0x0c, 0x3d, 0x80, 0x52, 0xef, 0x3c, 0x94, 0xbf, 0xc6, 0xbd,
  0x70, 0x46, 0x4c, 0xbc, 0xa0, 0xb0, 0x17, 0x3c, 0x4c, 0xe5, 0x34, 0x3d,
  0x00, 0x93, 0x63, 0x3d, 0x00, 0x9e, 0x53, 0xbd, 0x84, 0xe3, 0x18, 0x3d,
  0xda, 0xac, 0x64, 0xbd, 0xfe, 0xd6, 0x21, 0xbd, 0xf6, 0x7e, 0xef, 0x3d,
  0xd2, 0x0b, 0xc3, 0x3d, 0x7c, 0x04, 0xeb, 0xbc, 0x04, 0xf8, 0x8d, 0xbc,
  0xc0, 0xb4, 0x96, 0x3c, 0x98, 0xca, 0x7d, 0xbd, 0x8a, 0xe2, 0xdd, 0xbd,
  0x09, 0xf3, 0xa2, 0xbd, 0x50, 0x0b, 0x21, 0x3c, 0xd0, 0x2f, 0x78, 0x3d,
  0x50, 0x41, 0x4f, 0x3c, 0xe0, 0xd3, 0x6d, 0x3d, 0x84, 0xcb, 0x9f, 0x3d,
  0x10, 0x8f, 0x2a, 0x3c, 0x20, 0x2f, 0x4c, 0xbd, 0xd0, 0xea, 0x61, 0x3c,
  0xa0, 0x1d, 0x5e, 0x3d, 0x80, 0x13, 0x66, 0xba, 0xb0, 0x69, 0x4f, 0x3d,
  0xce, 0x91, 0xa8, 0x3d, 0x1c, 0xb6, 0x49, 0xbd, 0x34, 0xf7, 0xaa, 0x3d,
  0x84, 0xb3, 0x54, 0x3d, 0xfc, 0x8f, 0x4c, 0x3d, 0x62, 0x28, 0xc3, 0x3d,
  0x00, 0x38, 0x7d, 0xbb, 0x24, 0xf8, 0x8a, 0xbd, 0x18, 0xcf, 0x3f, 0xbd,
  0xce, 0x00, 0x32, 0xbd, 0x6e, 0x22, 0xa5, 0x3d, 0xb0, 0x3b, 0x7f, 0x3c,
  0x48, 0x34, 0x19, 0xbd, 0x92, 0x9f, 0x6d, 0xbd, 0xa8, 0xcd, 0x01, 0xbd,
  0x40, 0xae, 0x83, 0x3d, 0x2c, 0xc9, 0x01, 0x3d, 0x52, 0xb9, 0xe2, 0x3d,
  0x32, 0xb1, 0x7b, 0xbd, 0xac, 0x1a, 0xe3, 0x3d, 0x10, 0x17, 0x1f, 0x3c,
  0x14, 0xa4, 0xbe, 0x3d, 0x19, 0xcb, 0xce, 0xbd, 0x4c, 0x01, 0x87, 0x3d,
  0x00, 0x0b, 0xee, 0x3c, 0x26, 0x5e, 0x81, 0x3d, 0x12, 0x43, 0x4c, 0xbd,
  0xe0, 0x7e, 0x3e, 0x3c, 0x98, 0xdb, 0x8c, 0x3c, 0x50, 0xd3, 0x47, 0xbd,
  0xb0, 0x69, 0x78, 0xbd, 0x68, 0xa1, 0xb9, 0x3c, 0xe8, 0x66, 0xcd, 0x3d,
  0x5c, 0xa2, 0xf1, 0x3c, 0x0e, 0x70, 0x0c, 0x3e, 0x92, 0x3c, 0xf3, 0x3d,
  0xfa, 0x39, 0x3a, 0x3d, 0xac, 0xfd, 0xba, 0x3d, 0xe4, 0x13, 0x00, 0x3d,
  0xb1, 0x2e, 0x1e, 0x3e, 0x51, 0x55, 0x42, 0x3d, 0x5b, 0xc3, 0x5c, 0xbc,
  0x1e, 0xa5, 0x1c, 0x3e, 0x61, 0x01, 0x1d, 0x3e, 0x4f, 0xb0, 0xea, 0x3d,
  0x81, 0xd0, 0xbb, 0x3d, 0x98, 0xd2, 0x15, 0x3e, 0x43, 0xb6, 0xc5, 0xbc,
  0x8e, 0x24, 0x0c, 0xbd, 0xb3, 0xc7, 0x9b, 0x3d, 0x81, 0x33, 0x8f, 0xbb,
  0x7e, 0xb7, 0xb0, 0x3d, 0x3c, 0xe9, 0x1b, 0x3d, 0xdc, 0xef, 0xb8, 0xbd,
  0xdc, 0x78, 0x05, 0xbe, 0x79, 0xba, 0x63, 0x3d, 0x34, 0x20, 0x64, 0x3c,
  0xf0, 0x10, 0x3a, 0xbe, 0x95, 0x72, 0x39, 0xbd, 0xcc, 0x26, 0x1d, 0x3c,
  0xfe, 0x68, 0x2c, 0xbd, 0x93, 0x76, 0x3c, 0xbe, 0x0b, 0x15, 0x7f, 0xbe,
  0xa2, 0x2c, 0x4a, 0xbd, 0xc2, 0x4c, 0x4a, 0xbe, 0x09, 0x6e, 0x25, 0xbe,
  0x02, 0x26, 0xa6, 0xbd, 0x6b, 0xf5, 0xf8, 0xbd, 0x6b, 0x74, 0x0b, 0xbe,
  0x87, 0xd4, 0x39, 0xbe, 0x63, 0x77, 0xe9, 0xbd, 0x09, 0x91, 0xb8, 0xbd,
  0x33, 0x92, 0xe9, 0xbd, 0xe0, 0x18, 0xe7, 0x3b, 0x90, 0x11, 0xe1, 0xbd,
  0xdb, 0xbe, 0xe6, 0xbc, 0xa6, 0xda, 0xbc, 0xbc, 0x8b, 0xc0, 0xf2, 0xbd,
  0x2f, 0xa0, 0xda, 0xbd, 0x79, 0xa7, 0x52, 0xbd, 0x8b, 0xdb, 0x15, 0xbd,
  0x1a, 0x51, 0x4e, 0x3d, 0xfb, 0x27, 0xdd, 0x3d, 0xb6, 0x13, 0x46, 0xbd,
  0x0a, 0x57, 0x9e, 0x3d, 0x3e, 0x1a, 0x8c, 0xbb, 0x16, 0xa8, 0xde, 0xbc,
  0xa4, 0xd4, 0x3f, 0x3d, 0x5c, 0x86, 0x22, 0xba, 0x33, 0x04, 0x3f, 0x3d,
  0x3b, 0x24, 0xf1, 0x3c, 0xbf, 0x5a, 0x14, 0x3d, 0x3f, 0x1a, 0xf6, 0x3c,
  0xb4, 0xb6, 0xe6, 0x3d, 0x98, 0xff, 0x0b, 0x3e, 0x15, 0xc5, 0x23, 0x3d,
  0x37, 0x1b, 0x6c, 0x3d, 0x9c, 0x28, 0xd7, 0xbc, 0x28, 0x5f, 0xc5, 0x3d,
  0xf6, 0x10, 0xa1, 0x3d, 0xf0, 0x22, 0x94, 0x3d, 0x24, 0x36, 0x3d, 0x3e,
  0x9e, 0x99, 0xd0, 0x3d, 0xe3, 0x73, 0x87, 0x3d, 0x37, 0x4f, 0x0e, 0x3e,
  0xe1, 0x1f, 0x77, 0x3d, 0xab, 0x03, 0x69, 0x3e, 0x1a, 0xd6, 0x31, 0x3d,
  0xe7, 0x8b, 0x22, 0x3e, 0x48, 0xeb, 0x4c, 0x3e, 0xa4, 0x37, 0x38, 0x3e,
  0xa6, 0xe7, 0xca, 0x3b, 0x58, 0xfe, 0xa2, 0x3c, 0xe2, 0x27, 0x36, 0x3e,
  0x0d, 0x35, 0x46, 0x3e, 0x25, 0x5a, 0x02, 0x3d, 0x0f, 0x6d, 0x16, 0x3e,
  0xf1, 0xfb, 0x57, 0x3e, 0x23, 0xbd, 0x29, 0x3e, 0xb9, 0xb3, 0x8e, 0xbc,
  0xc3, 0x21, 0x97, 0x3d, 0xf2, 0x0d, 0xe5, 0x3b, 0xee, 0x58, 0x47, 0x3e,
  0x63, 0xdc, 0x4c, 0x3e, 0x15, 0xfe, 0x4d, 0x3e, 0x6f, 0x23, 0x56, 0x3e,
  0x9c, 0x2f, 0x9f, 0x3d, 0x1c, 0xb9, 0xea, 0x3d, 0x35, 0x9d, 0x61, 0xbc,
  0x45, 0x19, 0xce, 0x3d, 0x24, 0x5a, 0x0e, 0x3e, 0x4c, 0x22, 0x6c, 0x3d,
  0x74, 0xc3, 0x14, 0xbd, 0x71, 0xa5, 0x1b, 0x3e, 0x7a, 0x13, 0x27, 0xbd,
  0x3d, 0x6b, 0x6e, 0x3d, 0x93, 0x30, 0x80, 0x3d, 0xb3, 0xda, 0x2e, 0x3c,
  0xa8, 0x7e, 0x87, 0xbb, 0x70, 0x12, 0xf5, 0xbc, 0x20, 0x01, 0xbe, 0xbd,
  0xe4, 0xaa, 0x8d, 0xbd, 0xff, 0x6b, 0x9e, 0xbc, 0xaa, 0x93, 0xd9, 0xbd,
  0xd2, 0x02, 0x9b, 0xbd, 0xc3, 0x5d, 0x0a, 0xbe, 0x64, 0xe9, 0x0a, 0xbe,
  0x16, 0x92, 0x5f, 0xbd, 0xa5, 0xf4, 0xa5, 0x3d, 0xf4, 0x38, 0x60, 0x3b,
  0x35, 0x12, 0xb4, 0xbd, 0x28, 0xe1, 0xc2, 0x3d, 0x5a, 0xb6, 0x55, 0x3a,
  0x18, 0x62, 0xa5, 0x3d, 0x93, 0xc3, 0xe2, 0xbd, 0x95, 0x3a, 0xd9, 0x3c,
  0x87, 0x5c, 0xf6, 0x3c, 0x28, 0x81, 0x25, 0x3c, 0x90, 0xa4, 0xa6, 0x3d,
  0xa9, 0xe9, 0xf0, 0xbc, 0x86, 0xff, 0x3b, 0xbd, 0x42, 0xe9, 0xdc, 0xbd,
  0x1e, 0x57, 0x8d, 0x3d, 0x82, 0x61, 0xd1, 0x3d, 0x9c, 0x1e, 0x84, 0xbd,
  0xfe, 0x4f, 0x65, 0xbd, 0x8b, 0xb1, 0xd2, 0xbd, 0xdc, 0x5c, 0x61, 0x3d,
  0x42, 0x08, 0xd9, 0x3d, 0xd4, 0x35, 0xee, 0xbc, 0x60, 0x08, 0xa6, 0x3c,
  0xaa, 0xb3, 0xbd, 0xbd, 0x00, 0x72, 0x8e, 0x3d, 0x80, 0xda, 0x54, 0x3b,
  0xb0, 0xa5, 0xfc, 0x3c, 0x28, 0x1a, 0x8f, 0x3c, 0xde, 0x97, 0xd0, 0x3d,
  0xac, 0x31, 0x94, 0xbc, 0x84, 0x6e, 0xaf, 0xbd, 0x18, 0x4b, 0x7f, 0xbc,
  0x20, 0x22, 0x11, 0x3d, 0x49, 0xc5, 0x76, 0xbd, 0x20, 0x8b, 0x26, 0x3d,
  0xc0, 0x65, 0x94, 0xbc, 0x26, 0x62, 0x7e, 0xbd, 0xd2, 0xde, 0x83, 0x3d,
  0x80, 0x6d, 0xf7, 0xba, 0x06, 0xbf, 0x59, 0xbd, 0x09, 0x7f, 0xf7, 0xbd,
  0xc8, 0xa7, 0x5f, 0x3d, 0x00, 0x0b, 0xf1, 0xba, 0x04, 0x5d, 0xf0, 0xbd,
  0x44, 0xf3, 0xb5, 0xbc, 0x04, 0x8f, 0x1a, 0xbd, 0xb8, 0x3c, 0xc1, 0x3c,
  0xd0, 0xd9, 0x7d, 0x3c, 0x84, 0x57, 0xf7, 0xbd, 0x28, 0x3b, 0xe2, 0x3d,
  0xa0, 0xc3, 0x52, 0x3d, 0x28, 0x6f, 0x96, 0xbd, 0x18, 0xa9, 0x01, 0xbd,
  0x94, 0x84, 0x94, 0x3d, 0x3f, 0x29, 0x89, 0xbd, 0x1b, 0x79, 0xca, 0xbd,
  0x94, 0xb1, 0xc8, 0xbd, 0x1e, 0x4a, 0xa9, 0x3d, 0x02, 0x63, 0x17, 0xbd,
  0x62, 0x38, 0xd1, 0x3d, 0xe1, 0x94, 0xa8, 0xbd, 0xf8, 0x28, 0xe6, 0xbd,
  0x78, 0x24, 0x8e, 0xbc, 0x3c, 0x55, 0xf1, 0x3d, 0xff, 0xe9, 0xd9, 0xbd,
  0xa0, 0x44, 0x18, 0x3d, 0x9c, 0x7f, 0x15, 0xbd, 0x64, 0x8f, 0xe9, 0xbc,
  0x2c, 0xd0, 0x5c, 0xbd, 0x6a, 0x39, 0xdd, 0x3d, 0xf8, 0x1f, 0x32, 0xbd,
  0xfe, 0x9f, 0x8b, 0xbd, 0x50, 0xea, 0xfc, 0xbb, 0x02, 0x38, 0xd9, 0xbd,
  0x00, 0x97, 0xcb, 0x3a, 0xa2, 0x3b, 0x48, 0xbd, 0xb0, 0x06, 0x1a, 0x3d,
  0x80, 0x4e, 0xbc, 0xbd, 0x14, 0xab, 0xec, 0x3d, 0x80, 0xc1, 0x5b, 0xbd,
  0x52, 0x83, 0x80, 0x3d, 0xbe, 0xe8, 0x92, 0x3d, 0x80, 0x92, 0x04, 0x3c,
  0x18, 0xef, 0x09, 0xbd, 0x60, 0x98, 0xb6, 0x3c, 0xb4, 0xfb, 0x24, 0x3d,
  0xb3, 0x82, 0xcf, 0xbd, 0xf8, 0xed, 0xcd, 0x3c, 0x12, 0x35, 0xcf, 0xbd,
  0xc8, 0x91, 0xd2, 0xbc, 0x0a, 0x8d, 0xf4, 0x3d, 0xd6, 0xc9, 0x95, 0xbd,
  0x90, 0x31, 0x09, 0x3c, 0x48, 0xa3, 0xac, 0xbd, 0x90, 0x6e, 0x6c, 0x3c,
  0x18, 0xeb, 0xb3, 0x3c, 0x80, 0x88, 0x2b, 0xbd, 0x1f, 0xab, 0xe9, 0xbd,
  0x24, 0x56, 0xee, 0xbd, 0xf0, 0xf6, 0xce, 0xbd, 0x4e, 0x89, 0x58, 0xbd,
  0xf0, 0xbc, 0x6e, 0x3d, 0x4e, 0xa7, 0x9d, 0x3d, 0x2c, 0xfb, 0x47, 0x3d,
  0x80, 0xaf, 0xbb, 0x3b, 0xb8, 0xae, 0xa2, 0xbd, 0x60, 0x49, 0x7f, 0xbd,
  0x4c, 0x2e, 0x05, 0x3d, 0x00, 0x11, 0xf6, 0x3b, 0xcc, 0xa8, 0x62, 0x3d,
  0xca, 0xa0, 0xba, 0xbd, 0x00, 0xa7, 0xb6, 0xba, 0xe4, 0x41, 0x11, 0x3d,
  0x28, 0x7b, 0x79, 0xbc, 0x18, 0xa3, 0x6b, 0xbd, 0xe9, 0x51, 0xe2, 0xbd,
  0x60, 0xb8, 0x09, 0x3d, 0x30, 0x84, 0x90, 0xbd, 0x40, 0x93, 0xcd, 0x3a,
  0x18, 0xc9, 0x8b, 0x3c, 0x60, 0x62, 0xe3, 0x3c, 0xb0, 0x81, 0x9c, 0xbb,
  0x26, 0x1a, 0xaf, 0xbd, 0x20, 0x2e, 0x00, 0x3b, 0x70, 0xd1, 0x41, 0x3c,
  0x12, 0x50, 0xdc, 0x3d, 0x3f, 0x4d, 0xe1, 0xbd, 0x80, 0x70, 0x31, 0x3c,
  0xc0, 0x5d, 0xe4, 0xba, 0x40, 0xca, 0x91, 0x3a, 0x8a, 0x02, 0xeb, 0xbd,
  0xd8, 0xbd, 0xdc, 0xbd, 0xe0, 0xcd, 0xe4, 0xbc, 0xef, 0x4c, 0xeb, 0xbd,
  0x3c, 0x3d, 0x30, 0xbd, 0x9e, 0x45, 0x87, 0x3d, 0x6b, 0xfc, 0x89, 0xbd,
  0x76, 0x53, 0x86, 0xbd, 0xc0, 0x5a, 0x7c, 0xbc, 0xb0, 0xc6, 0xba, 0xbc,
  0xca, 0x35, 0xca, 0x3d, 0xae, 0xce, 0x8e, 0xbd, 0x08, 0x9d, 0x08, 0xbc,
  0x7e, 0x3b, 0xe2, 0xbd, 0xe8, 0x6b, 0xe0, 0xbc, 0x5e, 0x18, 0xc9, 0xbd,
  0x46, 0xab, 0xa7, 0xbd, 0x3c, 0x97, 0xee, 0x3d, 0x66, 0x80, 0xa0, 0xbd,
  0x56, 0x13, 0xb4, 0x3d, 0x08, 0x32, 0x1a, 0x3d, 0x5a, 0x4f, 0x81, 0x3d,
  0x8c, 0x8c, 0xd0, 0xbd, 0x38, 0x80, 0xa0, 0x3d, 0xd6, 0x55, 0xbd, 0x3d,
  0x18, 0x4d, 0x69, 0xbd, 0x76, 0x50, 0xb7, 0x3d, 0x6f, 0xb7, 0x7d, 0xbd,
  0x98, 0x1e, 0x67, 0x3d, 0x0d, 0xf6, 0xcc, 0xbd, 0x08, 0xeb, 0x64, 0xbc,
  0x02, 0xea, 0xde, 0xbd, 0xb0, 0x46, 0x87, 0xbc, 0x55, 0xcf, 0xb4, 0xbd,
  0x6f, 0xa2, 0xb8, 0xbd, 0xe0, 0x6f, 0x93, 0x3b, 0x20, 0xdd, 0x7d, 0x3d,
  0x70, 0x5d, 0x62, 0x3d, 0x4c, 0xb1, 0x46, 0x3d, 0x90, 0xa0, 0x26, 0x3d,
  0x4e, 0xb3, 0xc5, 0x3d, 0xd0, 0x5d, 0x94, 0xbb, 0x85, 0xb6, 0x76, 0xbd,
  0x08, 0x45, 0x37, 0xbd, 0xa8, 0xb8, 0xa7, 0xbd, 0x60, 0x80, 0x59, 0x3b,
  0x82, 0x5b, 0x5e, 0xbd, 0xa0, 0xcf, 0x22, 0x3d, 0xcc, 0x8b, 0xf1, 0xbc,
  0x88, 0x1d, 0xeb, 0x3c, 0xd1, 0x66, 0xe9, 0xbd, 0xc8, 0x08, 0xea, 0xbc,
  0x00, 0x45, 0x70, 0x3b, 0xf4, 0xca, 0xb8, 0xbd, 0x44, 0x24, 0x82, 0x3d,
  0x6a, 0x4a, 0xa1, 0x3d, 0x24, 0x77, 0x06, 0x3d, 0x7c, 0x2d, 0x9b, 0x3d,
  0xde, 0x74, 0x0e, 0xbd, 0x2c, 0xd5, 0x9b, 0x3d, 0x12, 0x3b, 0xe8, 0x3d,
  0x4c, 0x27, 0xb6, 0x3d, 0xea, 0x05, 0xb1, 0x3d, 0xe2, 0x3c, 0x9d, 0x3d,
  0x20, 0x80, 0x36, 0xbc, 0xbd, 0x30, 0xa9, 0xbd, 0xb0, 0x30, 0x81, 0x3c,
  0x1c, 0xef, 0x15, 0xbd, 0x48, 0x22, 0xc6, 0x3d, 0x98, 0xaa, 0x61, 0x3d,
  0x9f, 0xf2, 0xd5, 0xbd, 0xae, 0xf5, 0x73, 0xbd, 0x00, 0xa5, 0x85, 0xbd,
  0x80, 0x32, 0x57, 0x3c, 0xae, 0xc1, 0x09, 0xbd, 0x20, 0xa6, 0xde, 0x3c,
  0x50, 0xbe, 0x3b, 0x3c, 0x46, 0x4b, 0x69, 0xbd, 0x96, 0xc8, 0xb5, 0x3d,
  0x42, 0x23, 0xb2, 0x3d, 0x42, 0xb5, 0x82, 0xbd, 0x2f, 0x31, 0xb8, 0xbd,
  0xf6, 0x55, 0xcc, 0xbd, 0x21, 0xe9, 0xf3, 0xbd, 0xd8, 0x2b, 0xb9, 0x3c,
  0xc4, 0xce, 0xc8, 0xbc, 0xc0, 0xa3, 0x5c, 0xbc, 0xeb, 0xf4, 0x74, 0xbd,
  0x48, 0xd1, 0xce, 0x3d, 0xa8, 0xe1, 0x77, 0x3d, 0x10, 0xc1, 0x44, 0x3c,
  0x02, 0x68, 0x99, 0x3d, 0xc0, 0x17, 0xa1, 0x3b, 0xfa, 0xae, 0xf4, 0xbd,
  0xec, 0x2d, 0x5c, 0x3d, 0x9e, 0xd7, 0xa5, 0xbd, 0x6c, 0x58, 0x5a, 0x3d,
  0xc1, 0x89, 0xc1, 0xbd, 0x9d, 0x4c, 0xd7, 0xbd, 0xcc, 0x64, 0x87, 0x3d,
  0x50, 0x3a, 0xb7, 0x3d, 0xd4, 0xf4, 0x6d, 0x3d, 0xa6, 0x2a, 0x7b, 0xbd,
  0xae, 0xa9, 0x2f, 0xbd, 0x36, 0xb1, 0x03, 0xbd, 0xa5, 0x16, 0x92, 0xbd,
  0x18, 0xed, 0x22, 0xbc, 0xf8, 0x59, 0xfe, 0x3c, 0xfb, 0xea, 0xc1, 0xbd,
  0x30, 0x00, 0x59, 0xbc, 0x92, 0x68, 0xa3, 0x3d, 0x12, 0x24, 0x61, 0xbd,
  0x24, 0x6f, 0xae, 0xbd, 0x60, 0xa1, 0x60, 0xbd, 0xc8, 0x51, 0xd7, 0xbd,
  0x42, 0x15, 0xec, 0x3d, 0x2a, 0xb0, 0xcd, 0x3d, 0xf8, 0x2d, 0x14, 0xbd,
  0x16, 0x46, 0x52, 0xbd, 0x50, 0x55, 0x35, 0x3d, 0xba, 0xb8, 0xf3, 0x3d,
  0x98, 0x52, 0xa4, 0xbc, 0x18, 0x55, 0x31, 0xbd, 0x7c, 0x7e, 0x46, 0xbd,
  0x24, 0x0e, 0x29, 0x3d, 0xb8, 0x37, 0x18, 0xbc, 0x68, 0x35, 0xba, 0xbd,
  0xd6, 0x55, 0x98, 0x3d, 0x9c, 0xfa, 0x56, 0xbd, 0x14, 0x0d, 0x66, 0xbd,
  0xbe, 0xf8, 0xde, 0xbd, 0xb0, 0x1c, 0x66, 0xbd, 0xd0, 0x11, 0xcc, 0x3d,
  0xa4, 0xec, 0xc3, 0x3d, 0x90, 0xac, 0xa8, 0xbc, 0x7e, 0xce, 0xc2, 0xbd,
  0x49, 0x4d, 0x7f, 0xbd, 0xbe, 0xc1, 0x63, 0xbd, 0x89, 0x4a, 0xec, 0x3c,
  0xc5, 0x88, 0xb1, 0x3c, 0x35, 0xe5, 0x82, 0x3d, 0x01, 0x79, 0xdd, 0xbc,
  0x57, 0xd1, 0xec, 0xbc, 0xae, 0x92, 0xd8, 0x3d, 0x59, 0x45, 0x9d, 0x3d,
  0xed, 0xb3, 0x7a, 0x3d, 0xb4, 0x1f, 0x59, 0x3e, 0xa5, 0x59, 0xec, 0x3d,
  0xac, 0xcb, 0x9a, 0x3d, 0x15, 0xfa, 0x98, 0x3d, 0x2c, 0x73, 0xbf, 0xbc,
  0x1c, 0xd9, 0xd2, 0xbc, 0xc9, 0xfa, 0x9f, 0xbc, 0x6c, 0xff, 0xe7, 0x3d,
  0x79, 0x09, 0x54, 0x3d, 0x07, 0xcd, 0x1a, 0x3e, 0x03, 0xcf, 0xf7, 0x3d,
  0xb9, 0xe5, 0x89, 0xbb, 0x9f, 0x34, 0x57, 0x3d, 0xce, 0x38, 0x1d, 0x3e,
  0x2f, 0xcf, 0x2e, 0x3e, 0xf6, 0x8a, 0x2a, 0x3e, 0xa7, 0x11, 0x0e, 0x3e,
  0xb5, 0xba, 0x9f, 0xba, 0xe2, 0x1b, 0xac, 0x3d, 0x77, 0xe7, 0x27, 0x3e,
  0xa4, 0x77, 0x7e, 0x3d, 0x5c, 0x8d, 0x3f, 0xbd, 0x65, 0x16, 0xe9, 0x3d,
  0xe9, 0x0e, 0xda, 0xbd, 0x58, 0xd2, 0x9e, 0xbd, 0xcc, 0xad, 0x42, 0xbb,
  0x22, 0xb0, 0xc1, 0x3c, 0x80, 0x23, 0x42, 0x3c, 0xd2, 0xae, 0x72, 0xbd,
  0x75, 0x75, 0xe8, 0x3c, 0x3d, 0x0c, 0xf0, 0x3c, 0x1c, 0x79, 0x30, 0xbe,
  0x56, 0x3f, 0x25, 0xbd, 0x3f, 0x2e, 0xfd, 0xbd, 0xf8, 0xf4, 0xbb, 0x3b,
  0xb2, 0xd6, 0x07, 0xbe, 0xb1, 0xe3, 0x32, 0xbe, 0x36, 0xb7, 0x84, 0xbd,
  0xbe, 0x98, 0x9e, 0xbd, 0xd2, 0xad, 0x94, 0xbd, 0x3e, 0x4c, 0xf0, 0xbc,
  0xf9, 0x5d, 0x3c, 0xbe, 0x24, 0x5c, 0x8f, 0xbd, 0xab, 0x33, 0x67, 0xbe,
  0xdc, 0xc5, 0xd4, 0xbd, 0x55, 0xc9, 0x66, 0xbe, 0xc8, 0x80, 0x88, 0xbd,
  0xcb, 0x41, 0x05, 0xbe, 0xa4, 0xa9, 0x6d, 0xbe, 0x8b, 0x01, 0x4e, 0xbe,
  0xec, 0xc3, 0x11, 0xbe, 0xc9, 0x53, 0x61, 0xbe, 0x33, 0x6d, 0x13, 0xbe,
  0x8e, 0x79, 0xbb, 0xbd, 0x8a, 0x93, 0x23, 0xbe, 0x89, 0xb0, 0x98, 0x3c,
  0xc3, 0x45, 0x02, 0xbe, 0x0d, 0x64, 0x18, 0xbe, 0xc7, 0xee, 0x4f, 0x3d,
  0x56, 0x60, 0x13, 0xbe, 0x48, 0x1a, 0x2b, 0xbe, 0x22, 0xe1, 0x05, 0xbe,
  0x18, 0xe0, 0xcb, 0xbd, 0x71, 0xa5, 0x5f, 0x3d, 0x6a, 0x2c, 0xb9, 0xbc,
  0x80, 0xe5, 0xe5, 0x3c, 0x99, 0x30, 0x07, 0x3d, 0x69, 0x32, 0xf1, 0xbd,
  0x02, 0x71, 0x66, 0x3d, 0x90, 0x50, 0x97, 0x3d, 0x78, 0x7d, 0x76, 0xbd,
  0x75, 0x1c, 0xc7, 0x3d, 0xb7, 0x2b, 0x07, 0x3e, 0xd3, 0x2b, 0x60, 0x3d,
  0x94, 0x89, 0x9f, 0xbd, 0x40, 0x06, 0xc5, 0x3d, 0x74, 0xdb, 0xc9, 0x3d,
  0xf5, 0x99, 0xe5, 0x3d, 0x2e, 0x67, 0x42, 0x3d, 0x78, 0x97, 0x42, 0x3d,
  0x5c, 0x64, 0xdd, 0x3c, 0xe9, 0xc6, 0x39, 0x3d, 0x9d, 0x6d, 0x08, 0x3e,
  0x7e, 0x00, 0x3d, 0x3d, 0x76, 0x53, 0x39, 0x3d, 0x27, 0x52, 0xa2, 0xbc,
  0x8a, 0x51, 0x81, 0xbd, 0x9c, 0x0d, 0xa2, 0x3d, 0x57, 0x37, 0x18, 0x3b,
  0x68, 0xe6, 0x43, 0xbd, 0x32, 0xa5, 0x05, 0x3d, 0x2c, 0x18, 0xef, 0x3d,
  0x93, 0xdf, 0xdb, 0xbd, 0x63, 0x1a, 0xd9, 0xbc, 0xa4, 0xbe, 0xa7, 0x3c,
  0x38, 0xfb, 0x38, 0x3d, 0x9b, 0x6a, 0x82, 0xbd, 0xb0, 0xb0, 0xd8, 0xb6,
  0x5c, 0xfc, 0xb7, 0x3d, 0xf8, 0xc3, 0x02, 0xbe, 0x60, 0x2a, 0x94, 0x3d,
  0x5e, 0xcf, 0x7b, 0x3c, 0xc2, 0x87, 0xad, 0x3d, 0x5c, 0xb7, 0xc5, 0xbd,
  0x03, 0xf1, 0x85, 0xbc, 0xc2, 0xd2, 0x84, 0x3d, 0x78, 0xc5, 0x1f, 0x3d,
  0xcf, 0x6a, 0xed, 0xbd, 0x34, 0x27, 0x75, 0xbc, 0x21, 0xd3, 0x5c, 0x3c,
  0x0a, 0x90, 0x3e, 0x3b, 0x8b, 0xe4, 0xaf, 0xbd, 0x78, 0xbe, 0xcd, 0x3c,
  0xdc, 0xe8, 0x10, 0xbe, 0xdd, 0xc7, 0xe4, 0xbd, 0xef, 0x62, 0xe3, 0xbc,
  0x2e, 0xd4, 0x7f, 0x3c, 0x1d, 0xbd, 0x26, 0xbd, 0x50, 0xeb, 0x81, 0x3d,
  0xa5, 0x53, 0xe2, 0xbd, 0xb8, 0x49, 0x6b, 0x3d, 0x6e, 0x4c, 0xf1, 0xbd,
  0xf6, 0x40, 0xda, 0xbd, 0x94, 0x2b, 0x43, 0xbd, 0x54, 0x23, 0x2a, 0x3d,
  0x2e, 0x6e, 0xea, 0xbd, 0xee, 0xb3, 0x48, 0xbd, 0x7c, 0x23, 0xe1, 0x3d,
  0x20, 0xe8, 0xb1, 0x3b, 0x72, 0x5f, 0xf7, 0x3d, 0xe4, 0x41, 0x99, 0xbc,
  0x4c, 0x72, 0xb6, 0xbc, 0xd0, 0x44, 0x38, 0x3d, 0x50, 0x11, 0xf4, 0xbb,
  0x40, 0xbe, 0xbe, 0x3c, 0x98, 0xfc, 0x8e, 0x3d, 0xc0, 0xa6, 0xd1, 0x3b,
  0x88, 0xcb, 0xcf, 0x3c, 0x5c, 0xf0, 0x8b, 0xbd, 0x16, 0x1e, 0x65, 0xbd,
  0x98, 0xe1, 0x24, 0x3d, 0xc8, 0x71, 0xbd, 0x3c, 0xa6, 0x83, 0xbc, 0x3d,
  0xcc, 0x2c, 0x10, 0xbd, 0x1b, 0xe0, 0xbe, 0xbd, 0x14, 0xb6, 0xbc, 0x3d,
  0x52, 0xad, 0xe0, 0xbd, 0x47, 0x2b, 0x85, 0xbd, 0xcc, 0x64, 0xb0, 0x3d,
  0xac, 0xd1, 0x0e, 0xbd, 0xe8, 0x29, 0xa3, 0x3c, 0xd8, 0x62, 0xa3, 0xbd,
  0xa8, 0x4f, 0x6b, 0x3d, 0xd5, 0x06, 0xdd, 0xbd, 0x9c, 0x24, 0x29, 0xbd,
  0xee, 0x7f, 0x30, 0xbd, 0xec, 0xb4, 0x94, 0xbd, 0x6e, 0x5c, 0xf7, 0x3d,
  0x54, 0x77, 0x0b, 0x3d, 0xd4, 0x22, 0xc2, 0xbc, 0xe0, 0x49, 0xd4, 0x3b,
  0x28, 0xc3, 0x88, 0x3d, 0x72, 0xe1, 0xc5, 0x3d, 0x10, 0xd7, 0xed, 0x3c,
  0x00, 0x5e, 0xb1, 0x3d, 0x00, 0x9f, 0xa5, 0xb9, 0xa8, 0xa7, 0x83, 0x3c,
  0x00, 0xdd, 0x01, 0x3d, 0xc0, 0x6b, 0x84, 0x3d, 0x93, 0xac, 0xb8, 0xbd,
  0x3a, 0x3d, 0x8c, 0x3d, 0x6c, 0x2b, 0x45, 0xbd, 0xff, 0x3a, 0xb7, 0xbd,
  0x2c, 0x43, 0x88, 0xbd, 0x4c, 0x43, 0xbc, 0xbd, 0x5f, 0xed, 0xc6, 0xbd,
  0xac, 0x43, 0x7e, 0x3d, 0x20, 0xff, 0xca, 0x3c, 0xe0, 0xd0, 0x99, 0xbb,
  0xd3, 0x56, 0xe9, 0xbd, 0x72, 0x80, 0xa8, 0xbd, 0xc0, 0xe1, 0xb4, 0x3d,
  0x60, 0x4e, 0x5f, 0x3d, 0x06, 0xd0, 0xdb, 0xbd, 0xf8, 0x39, 0xdf, 0xbd,
  0xe0, 0x92, 0xca, 0x3d, 0x58, 0x7d, 0xcf, 0x3d, 0x88, 0xe2, 0x3e, 0x3d,
  0xd0, 0x35, 0x0d, 0x3c, 0x3a, 0x0b, 0xcd, 0xbd, 0x97, 0x57, 0x88, 0xbd,
  0xe2, 0x0e, 0xbc, 0xbd, 0xa4, 0x3e, 0xdf, 0x3d, 0xde, 0xf0, 0x9f, 0x3d,
  0xd8, 0x57, 0xba, 0x3c, 0x54, 0xe3, 0xc2, 0xbc, 0x2c, 0xa3, 0x57, 0x3d,
  0x9e, 0xec, 0xe6, 0x3d, 0x26, 0x6d, 0xd6, 0xbd, 0xdc, 0x2e, 0xb8, 0xbc,
  0x48, 0x02, 0x35, 0x3d, 0x6c, 0x81, 0x2f, 0x3d, 0x86, 0x1f, 0xc1, 0x3d,
  0x24, 0x31, 0x82, 0x3d, 0xe0, 0x04, 0x82, 0x3d, 0x4e, 0x81, 0xbe, 0x3d,
  0xe0, 0x2b, 0x82, 0x3b, 0x90, 0xbb, 0xd6, 0xbd, 0xd4, 0xcf, 0xef, 0xbc,
  0xea, 0x65, 0xa9, 0xbd, 0x66, 0x28, 0xbb, 0x3d, 0x5c, 0xae, 0xef, 0xbd,
  0x24, 0x1c, 0x8c, 0xbd, 0x60, 0xf5, 0x3d, 0x3c, 0xca, 0x03, 0xba, 0x3d,
  0xc0, 0xe5, 0x10, 0xbc, 0x20, 0xaf, 0xd7, 0x3b, 0xd4, 0xcb, 0x8b, 0x3d,
  0x0a, 0xd4, 0x68, 0xbd, 0x72, 0xb5, 0xe0, 0x3d, 0x90, 0x2a, 0x2a, 0x3c,
  0xac, 0xbb, 0xab, 0xbd, 0xcc, 0xf3, 0x8a, 0xbc, 0x58, 0xaa, 0xd5, 0x3c,
  0x68, 0xcc, 0xb4, 0xbd, 0x44, 0xbe, 0x10, 0x3d, 0x70, 0xca, 0xe6, 0x3d,
  0x50, 0x57, 0x3f, 0xbd, 0x6a, 0xa5, 0x5f, 0xbd, 0x00, 0xe4, 0xe8, 0x38,
  0x50, 0x65, 0x16, 0x3d, 0x50, 0x6d, 0xad, 0xbd, 0x73, 0x84, 0xea, 0xbd,
  0xc4, 0x11, 0xd8, 0xbc, 0xe0, 0x9b, 0x98, 0xbc, 0x26, 0x17, 0x10, 0xbd,
  0x00, 0x3b, 0x5d, 0x3a, 0xbc, 0xc4, 0xde, 0x3d, 0x6c, 0xb6, 0x67, 0x3d,
  0x80, 0x9f, 0x45, 0x3b, 0xa6, 0x33, 0xd7, 0xbd, 0x62, 0x9d, 0x02, 0xbd,
  0xe8, 0x6e, 0x84, 0x3c, 0x19, 0x64, 0x98, 0xbd, 0x40, 0x31, 0x09, 0x3d,
  0xdc, 0x7d, 0xfc, 0xbc, 0xd4, 0xbc, 0x22, 0x3d, 0x2e, 0x65, 0x7e, 0xbd,
  0xec, 0x6b, 0x59, 0x3d, 0x00, 0xfe, 0x53, 0xba, 0x2c, 0x1f, 0xa6, 0xbc,
  0x1c, 0x4f, 0x86, 0xbd, 0x14, 0xfa, 0x21, 0x3d, 0x29, 0x71, 0xd7, 0xbd,
  0xc8, 0xcf, 0x11, 0x3d, 0xe0, 0xa3, 0x45, 0x3d, 0xd8, 0x8c, 0xa6, 0x3c,
  0x10, 0xf4, 0x91, 0xbc, 0xf4, 0xae, 0x39, 0x3d, 0x84, 0x22, 0x6d, 0xbd,
  0xf2, 0x92, 0xf6, 0x3d, 0xe4, 0x75, 0xf4, 0xbc, 0x0e, 0x85, 0x86, 0x3d,
  0x50, 0x44, 0x13, 0x3c, 0x10, 0xb6, 0x59, 0x3c, 0x22, 0x1b, 0x8a, 0x3d,
  0x58, 0xe5, 0xe5, 0x3c, 0xfa, 0x13, 0xdc, 0x3d, 0xbe, 0xf0, 0xd1, 0xbd,
  0x00, 0xf8, 0x00, 0xbc, 0x8c, 0xe1, 0xb1, 0xbd, 0xe0, 0xce, 0x30, 0x3c,
  0xe0, 0xca, 0x29, 0xbc, 0xaf, 0x16, 0x87, 0xbd, 0x74, 0x51, 0xc5, 0xbd,
  0x60, 0xb7, 0x9d, 0x3c, 0x0c, 0x27, 0x68, 0xbd, 0x44, 0x55, 0x75, 0x3d,
  0x0e, 0x95, 0xe7, 0x3d, 0xec, 0xa6, 0x9f, 0x3d, 0x06, 0xd0, 0x5c, 0xbd,
  0x38, 0x49, 0xcf, 0x3d, 0x66, 0x91, 0x50, 0xbd, 0x90, 0xb8, 0xb9, 0x3c,
  0xa8, 0x3a, 0xb4, 0x3c, 0xa0, 0x6e, 0xab, 0xbd, 0xec, 0xe5, 0x72, 0x3d,
  0xf0, 0x00, 0xe0, 0x3c, 0x90, 0xf9, 0x64, 0x3d, 0x16, 0x3f, 0x51, 0xbd,
  0x28, 0xd6, 0x0e, 0x3d, 0x46, 0xfe, 0xeb, 0xbd, 0x70, 0xdc, 0x8e, 0x3c,
  0xd0, 0x6b, 0xce, 0x3d, 0x98, 0x6e, 0x46, 0xbc, 0x52, 0xca, 0xe8, 0x3d,
  0x30, 0x6d, 0x38, 0xbc, 0x1e, 0x13, 0xdf, 0x3d, 0xf4, 0x14, 0x84, 0xbd,
  0xe8, 0x1a, 0x20, 0x3d, 0x90, 0x81, 0x3a, 0x3c, 0x40, 0x4d, 0xea, 0x3b,
  0xb8, 0xa9, 0x95, 0xbc, 0xc2, 0xc4, 0x85, 0xbd, 0xc0, 0xb0, 0x05, 0x3d,
  0xdc, 0x64, 0xc8, 0x3d, 0xd8, 0x65, 0xc5, 0x3d, 0xac, 0x16, 0xc8, 0xbd,
  0x56, 0x9d, 0x80, 0x3d, 0x04, 0x92, 0xd9, 0x3d, 0xf2, 0xcc, 0x47, 0xbd,
  0xb0, 0xcd, 0x5d, 0x3c, 0x26, 0xaa, 0xd1, 0x3d, 0x0c, 0x2b, 0x63, 0x3d,
  0x50, 0x4e, 0x35, 0x3d, 0x28, 0x73, 0x10, 0x3d, 0x64, 0x67, 0x6e, 0x3d,
  0x3e, 0x9a, 0xf4, 0xbd, 0xc6, 0xe0, 0xb1, 0xbd, 0x20, 0xcf, 0xaa, 0xbd,
  0xd8, 0x79, 0xc3, 0xbd, 0x40, 0x38, 0x63, 0xbb, 0xc6, 0x5d, 0xf0, 0xbd,
  0x05, 0x2d, 0x9a, 0xbd, 0xe0, 0xa4, 0x6f, 0x3c, 0xd4, 0x1b, 0x2f, 0xbd,
  0x96, 0x95, 0x2d, 0xbd, 0x52, 0x77, 0xc1, 0x3d, 0x2c, 0x61, 0x0b, 0x3d,
  0x28, 0x8a, 0x26, 0xbd, 0xbd, 0xcf, 0xb9, 0xbd, 0xde, 0x3a, 0x31, 0xbd,
  0x00, 0xb0, 0x8a, 0xbd, 0x16, 0xa3, 0x9f, 0x3d, 0x6c, 0xcd, 0xb4, 0x3d,
  0x59, 0x73, 0xbd, 0xbd, 0xdb, 0x37, 0xa3, 0xbd, 0x36, 0xdd, 0xef, 0x3d,
  0xa3, 0xca, 0xd4, 0xbd, 0x10, 0x9f, 0x32, 0x3d, 0x6c, 0x7a, 0xbe, 0xbd,
  0x48, 0xcf, 0x0b, 0xbd, 0xb4, 0x16, 0x30, 0xbd, 0x10, 0x59, 0xe2, 0xbd,
  0x16, 0xe1, 0xa2, 0xbd, 0x03, 0x56, 0xe8, 0xbd, 0xe8, 0xb9, 0xdf, 0x3d,
  0xea, 0x44, 0xa9, 0x3d, 0x24, 0x1d, 0x03, 0xbd, 0x30, 0x12, 0x59, 0xbd,
  0x10, 0xf0, 0x6d, 0xbd, 0xf6, 0xc8, 0xa0, 0xbd, 0xec, 0x7e, 0x32, 0x3d,
  0x5c, 0x83, 0xbb, 0x3d, 0x16, 0x2a, 0x8f, 0x3d, 0xb0, 0x09, 0xeb, 0x3c,
  0xa2, 0x45, 0xc8, 0xbd, 0x06, 0xfa, 0xe0, 0xbd, 0x68, 0xeb, 0x2f, 0xbd,
  0x6c, 0x37, 0x13, 0x3d, 0x8f, 0x49, 0xcd, 0xbd, 0xc0, 0xfd, 0x79, 0xbc,
  0x78, 0x96, 0x02, 0x3d, 0x3e, 0xb6, 0x97, 0x3d, 0x40, 0x30, 0xdf, 0x3d,
  0xa2, 0x08, 0xc9, 0x3d, 0x94, 0x96, 0xb4, 0xbd, 0x0e, 0x38, 0x8e, 0x3d,
  0xc8, 0xec, 0x12, 0x3d, 0x7e, 0x8e, 0x80, 0xbd, 0xdc, 0x7d, 0x6c, 0x3d,
  0x32, 0xf9, 0x6c, 0xbd, 0xa0, 0x21, 0x3d, 0xbd, 0xa0, 0x67, 0xb0, 0x3b,
  0xb4, 0xb6, 0xb3, 0xbc, 0xa0, 0x27, 0xec, 0xbb, 0x33, 0xba, 0x60, 0xbe,
  0xd4, 0x72, 0x01, 0xbd, 0xb8, 0x2e, 0xbc, 0xbd, 0x46, 0x47, 0x21, 0x3b,
  0xb2, 0xcd, 0x21, 0x3d, 0xa9, 0x68, 0x12, 0xbe, 0x91, 0xed, 0xc3, 0xbc,
  0xef, 0xd2, 0x28, 0xbe, 0x47, 0x3d, 0xa1, 0xbd, 0xf3, 0x16, 0x6a, 0xbe,
  0xbb, 0xe1, 0x8b, 0xbd, 0x80, 0xfd, 0x0c, 0xbe, 0xeb, 0xac, 0xc9, 0xbd,
  0xb3, 0x9d, 0x3a, 0xbe, 0xb9, 0x2d, 0x34, 0xbe, 0x50, 0xea, 0x5b, 0xbe,
  0x5d, 0x13, 0xe8, 0xbd, 0x46, 0xbe, 0x2b, 0xbe, 0xec, 0xce, 0xb4, 0xbd,
  0x8a, 0xa3, 0xcc, 0xbd, 0xcb, 0x6a, 0x77, 0x3d, 0x9b, 0x9d, 0x74, 0x3d,
  0x5c, 0xe9, 0x82, 0x3d, 0xa0, 0xaa, 0x95, 0x3d, 0x31, 0x3e, 0x3a, 0x3e,
  0xab, 0xb5, 0x36, 0x3e, 0x44, 0xe7, 0x3d, 0x3e, 0x46, 0xf6, 0x1b, 0x3e,
  0x3d, 0x2b, 0x87, 0x3e, 0x06, 0x29, 0x49, 0x3e, 0x57, 0xc0, 0x65, 0x3e,
  0xf5, 0x11, 0x24, 0x3e, 0xfc, 0x93, 0xe3, 0x3d, 0x41, 0xbb, 0xd2, 0x3d,
  0xa3, 0xd3, 0x5d, 0x3e, 0x32, 0x48, 0x7b, 0x3d, 0xea, 0x30, 0x2f, 0x3e,
  0x89, 0x2e, 0x5f, 0x3e, 0xeb, 0x31, 0xec, 0x3d, 0x95, 0x2b, 0xa9, 0xbc,
  0x03, 0xbf, 0x4e, 0x3c, 0x1b, 0x3f, 0x5c, 0x3d, 0xf6, 0xeb, 0xe9, 0x3d,
  0x48, 0x28, 0x97, 0xbd, 0x57, 0x85, 0x63, 0x3c, 0xd3, 0xb6, 0xad, 0xbd,
  0x20, 0x11, 0x52, 0xbd, 0x0a, 0x7b, 0xa2, 0x3b, 0xca, 0xa3, 0xd7, 0x3d,
  0x28, 0x49, 0xa2, 0x3d, 0x02, 0x5a, 0xad, 0x3d, 0x0c, 0xe1, 0x54, 0x3d,
  0xc5, 0x7b, 0x3c, 0xbd, 0x03, 0xbd, 0x27, 0xbd, 0x42, 0x1a, 0x8d, 0xbd,
  0x66, 0x6a, 0x05, 0x3e, 0xe7, 0x9c, 0x39, 0xba, 0x18, 0xcf, 0xb6, 0x3d,
  0xc2, 0x1d, 0x42, 0xbb, 0x3f, 0x3c, 0x4c, 0x3d, 0x7d, 0x78, 0x3c, 0x3e,
  0x8d, 0xaa, 0xac, 0xbc, 0x82, 0x41, 0xf7, 0x3d, 0x81, 0x3b, 0x50, 0x3e,
  0x71, 0x1d, 0xbd, 0xbb, 0x72, 0x27, 0x52, 0x3c, 0x29, 0xbb, 0x03, 0x3e,
  0xd9, 0x13, 0xf0, 0xbc, 0x12, 0x80, 0x4c, 0x3c, 0x45, 0x8e, 0xc8, 0x3d,
  0xc2, 0x75, 0x72, 0x3c, 0x10, 0x24, 0x75, 0x3d, 0x91, 0x21, 0xd4, 0x3d,
  0xaa, 0x72, 0xb2, 0x3d, 0xf4, 0xca, 0x85, 0x3d, 0xc8, 0xe2, 0xc3, 0x3d,
  0xb8, 0x24, 0x7e, 0x3d, 0x78, 0x2d, 0xd3, 0x3b, 0xe0, 0xb5, 0x44, 0xbd,
  0xf9, 0x4d, 0x77, 0x3d, 0x5b, 0x42, 0xf9, 0x3c, 0x4e, 0xde, 0x79, 0x3d,
  0x62, 0x10, 0xdd, 0xbd, 0xc2, 0x66, 0xe6, 0xbd, 0x7c, 0x11, 0x3c, 0xbd,
  0xe5, 0xc1, 0x82, 0xbd, 0xf9, 0x59, 0xc6, 0xbd, 0x18, 0xb5, 0xb3, 0xbb,
  0xc6, 0x7c, 0x65, 0xbd, 0x6a, 0xca, 0xd7, 0x3d, 0xf7, 0xc7, 0x9c, 0x3d,
  0x73, 0x32, 0x3d, 0x3d, 0x42, 0x77, 0x32, 0xbd, 0x99, 0x2e, 0x9f, 0x3d,
  0x87, 0xb0, 0xf9, 0xbd, 0xea, 0x9e, 0xb5, 0xbc, 0x80, 0x21, 0xf0, 0xbd,
  0x8c, 0x28, 0xde, 0xbc, 0xcc, 0x6c, 0xb9, 0x3a, 0xc9, 0xde, 0xe3, 0xbc,
  0xa3, 0xb4, 0x14, 0xbe, 0x2d, 0xf9, 0x34, 0xbd, 0x81, 0x46, 0xdf, 0xbc,
  0x67, 0xdd, 0x10, 0xbe, 0x4b, 0x5f, 0x72, 0xbd, 0x5f, 0x78, 0xdd, 0xbd,
  0x60, 0xa3, 0x3f, 0x3d, 0xb7, 0x7e, 0x58, 0x3b, 0x39, 0x0a, 0x7b, 0xbb,
  0xa9, 0x47, 0x91, 0x3d, 0x1f, 0xf0, 0x95, 0x3d, 0x71, 0xa9, 0x20, 0xbd,
  0x0e, 0xb9, 0xda, 0x3c, 0x78, 0x47, 0xcc, 0xbc, 0xe3, 0x3e, 0x38, 0x3d,
  0xa2, 0x07, 0xdd, 0x3d, 0x49, 0x95, 0x5a, 0x3c, 0x53, 0x63, 0x01, 0x3e,
  0x3c, 0xe3, 0x26, 0xbd, 0xb9, 0x93, 0xa8, 0xbc, 0x95, 0x6b, 0x51, 0xbd,
  0x3e, 0x9a, 0x59, 0xbd, 0xde, 0xfd, 0x46, 0xbc, 0xb2, 0xd0, 0x07, 0x3e,
  0x04, 0x38, 0xa7, 0x3d, 0x6f, 0xe0, 0xbe, 0xbd, 0x8a, 0x7c, 0xc4, 0x3d,
  0xed, 0x6f, 0xd7, 0xbc, 0xf4, 0x12, 0xde, 0xbc, 0xf8, 0xc8, 0x71, 0x3d,
  0xc8, 0x36, 0x86, 0xbd, 0xb8, 0x1c, 0x6f, 0x3d, 0xa2, 0xbf, 0xcf, 0x3d,
  0x6a, 0x07, 0x81, 0xbd, 0xe0, 0xcb, 0x68, 0x3c, 0xc0, 0xc1, 0xa8, 0x3d,
  0xfc, 0x2d, 0xb8, 0x3d, 0x70, 0x9d, 0x80, 0xbd, 0xc0, 0x72, 0x48, 0xbb,
  0xd0, 0xaa, 0x97, 0x3c, 0xb2, 0x4f, 0x87, 0x3d, 0xdc, 0x3d, 0xd3, 0xbc,
  0xdc, 0x45, 0xcc, 0x3d, 0xc4, 0xd6, 0xe0, 0xbd, 0xc0, 0x97, 0x09, 0xbd,
  0xd4, 0x70, 0xa4, 0x3d, 0xc4, 0x07, 0x0b, 0x3d, 0x24, 0x63, 0x78, 0x3d,
  0x82, 0x1d, 0xac, 0xbd, 0x2c, 0x6d, 0x61, 0xbd, 0x5c, 0xff, 0xaf, 0xbd,
  0x90, 0x16, 0xa0, 0x3c, 0xbb, 0x22, 0xf4, 0xbd, 0x00, 0x32, 0x98, 0x3d,
  0xce, 0x11, 0xa8, 0x3d, 0xe6, 0x69, 0x85, 0xbd, 0x98, 0x41, 0x29, 0x3d,
  0xd6, 0x56, 0xac, 0x3d, 0x18, 0xb5, 0x8a, 0x3c, 0xb8, 0xcb, 0x2a, 0xbd,
  0xb8, 0xd8, 0x1b, 0x3d, 0xe8, 0xfc, 0xdf, 0xbd, 0xce, 0x29, 0xb0, 0x3d,
  0xa2, 0x0d, 0xd3, 0x3d, 0x6a, 0x09, 0x43, 0xbd, 0x56, 0x5b, 0x94, 0x3d,
  0x88, 0x7c, 0x74, 0x3d, 0xe0, 0xd9, 0x6e, 0x3d, 0x04, 0x05, 0x88, 0xbc,
  0xd6, 0xe2, 0x2d, 0xbd, 0x2e, 0x80, 0xc3, 0x3d, 0x5c, 0x47, 0xe2, 0xbd,
  0xb4, 0x28, 0x89, 0x3d, 0xb8, 0x43, 0x4b, 0x3d, 0xb8, 0x89, 0x7b, 0x3d,
  0xa0, 0xe0, 0x1e, 0xbc, 0x62, 0x67, 0xa1, 0xbd, 0x38, 0x26, 0x9d, 0xbd,
  0xc8, 0x60, 0x91, 0xbc, 0xea, 0xf4, 0x85, 0xbd, 0x18, 0xec, 0x91, 0x3d,
  0x50, 0x14, 0x70, 0xbd, 0x66, 0x65, 0xec, 0x3d, 0x44, 0x95, 0x92, 0x3d,
  0xa4, 0x7e, 0x3d, 0x3d, 0x48, 0xf4, 0x00, 0x3d, 0x00, 0xa6, 0xa4, 0x3b,
  0x68, 0xdb, 0xef, 0xbc, 0xb6, 0xe2, 0x05, 0xbd, 0x80, 0x2c, 0x55, 0xbb,
  0x5e, 0x55, 0x07, 0xbd, 0xfc, 0x84, 0x20, 0x3d, 0x5c, 0x54, 0x90, 0xbc,
  0xb1, 0xd3, 0xd7, 0xbd, 0xfa, 0x2e, 0x19, 0xbd, 0x10, 0x97, 0xf1, 0x3c,
  0x6c, 0xac, 0x8b, 0xbc, 0x88, 0xc5, 0x86, 0x3c, 0x80, 0x59, 0x0a, 0x3b,
  0x10, 0xdf, 0x34, 0x3c, 0x6e, 0x6d, 0x99, 0x3d, 0xdc, 0x05, 0xc5, 0x3d,
  0xae, 0x10, 0xe6, 0x3d, 0xe9, 0x74, 0xbd, 0xbd, 0x50, 0x4b, 0x07, 0x3c,
  0x1a, 0xaa, 0xc0, 0x3d, 0xea, 0xd2, 0xf5, 0x3d, 0x1c, 0x9c, 0x35, 0xbd,
  0x44, 0x32, 0xa7, 0x3d, 0xaa, 0xef, 0x8e, 0x3d, 0xac, 0x68, 0xa2, 0xbc,
  0x1c, 0x74, 0xcc, 0xbd, 0xcb, 0xd8, 0xc4, 0xbd, 0x68, 0x27, 0x8b, 0x3d,
  0xfc, 0x33, 0x9c, 0xbd, 0x2e, 0xea, 0x3c, 0xbd, 0x74, 0xbc, 0xdf, 0x3d,
  0x80, 0x42, 0x5f, 0x3c, 0x9b, 0xe4, 0xec, 0xbd, 0x6e, 0x31, 0x9e, 0xbd,
  0xee, 0x03, 0xa9, 0xbd, 0x40, 0xb0, 0x42, 0x3d, 0x70, 0xf7, 0x58, 0xbc,
  0x44, 0x58, 0x56, 0x3d, 0xa0, 0x84, 0x72, 0xbc, 0x94, 0x72, 0x97, 0xbd,
  0x68, 0x38, 0x1f, 0xbc, 0x4c, 0x1e, 0x8b, 0x3d, 0x78, 0xdd, 0x1a, 0xbc,
  0x54, 0x0c, 0x64, 0xbd, 0xfc, 0xd2, 0xf0, 0xbc, 0x58, 0xaa, 0xb5, 0x3d,
  0x9c, 0x59, 0x26, 0x3d, 0x9c, 0x20, 0x11, 0xbd, 0xe0, 0x23, 0xbd, 0xbc,
  0x94, 0x95, 0x8a, 0x3d, 0x59, 0x10, 0xe2, 0xbd, 0x2d, 0x69, 0xde, 0xbd,
  0x00, 0x0f, 0x17, 0x3c, 0x08, 0xcd, 0x72, 0x3d, 0xc0, 0xe5, 0x74, 0xbc,
  0x0b, 0x22, 0xf2, 0xbd, 0x80, 0xf2, 0x08, 0x3c, 0x7a, 0x56, 0x92, 0xbd,
  0x26, 0x28, 0x9f, 0x3d, 0x30, 0xbf, 0xea, 0x3c, 0x86, 0x41, 0xb0, 0xbd,
  0xee, 0x1e, 0x87, 0x3d, 0x9a, 0x38, 0x05, 0xbd, 0x00, 0x64, 0x0b, 0x3c,
  0x65, 0x52, 0xee, 0xbd, 0x88, 0x82, 0x34, 0x3d, 0xa8, 0x4b, 0x9c, 0x3c,
  0x82, 0xa1, 0xde, 0x3d, 0x12, 0x3e, 0xd8, 0x3d, 0x18, 0xd1, 0x2d, 0x3d,
  0x62, 0xf3, 0xff, 0xff, 0x10, 0x00, 0x00, 0x00, 0x0b, 0x00, 0x00, 0x00,
  0x1c, 0x00, 0x00, 0x00, 0x30, 0x00, 0x00, 0x00, 0x04, 0x00, 0x00, 0x00,
  0x08, 0x00, 0x00, 0x00, 0x01, 0x00, 0x00, 0x00, 0x03, 0x00, 0x00, 0x00,
  0x80, 0x00, 0x00, 0x00, 0x13, 0x00, 0x00, 0x00, 0x6d, 0x6f, 0x64, 0x65,
  0x6c, 0x2f, 0x63, 0x6f, 0x6e, 0x76, 0x32, 0x64, 0x2f, 0x43, 0x6f, 0x6e,
  0x76, 0x32, 0x44, 0x00, 0x7c, 0xf2, 0xff, 0xff, 0x3e, 0xf3, 0xff, 0xff,
  0x04, 0x00, 0x00, 0x00, 0x40, 0x01, 0x00, 0x00, 0xcb, 0x8c, 0x93, 0x3c,
  0x5a, 0x89, 0x0b, 0xbf, 0xeb, 0x88, 0x93, 0x3e, 0xf7, 0xc6, 0xa3, 0x3e,
  0x83, 0x5f, 0x9f, 0x3d, 0xfb, 0xe5, 0x20, 0x3f, 0x19, 0x20, 0xce, 0xbe,
  0x76, 0xe1, 0x15, 0x3f, 0xcb, 0xee, 0x90, 0xbe, 0x6c, 0xa3, 0x73, 0x3d,
  0x81, 0x5a, 0x44, 0xbc, 0xf6, 0x00, 0x18, 0xbf, 0x6b, 0x55, 0xb8, 0xbe,
  0x0a, 0x5c, 0xd4, 0x3d, 0x84, 0x37, 0xa5, 0xbd, 0x10, 0x4c, 0x80, 0xbe,
  0x7f, 0x21, 0x3b, 0xbf, 0x4c, 0x32, 0x6c, 0xbd, 0xc8, 0x9a, 0xe9, 0x3e,
  0x7b, 0xfc, 0xa0, 0xbe, 0xb8, 0x50, 0x3f, 0xbf, 0x60, 0x71, 0xb6, 0xbe,
  0x9c, 0x30, 0xed, 0x3e, 0xa4, 0x2b, 0xcc, 0xbe, 0xbc, 0x1a, 0xdc, 0xbe,
  0xcf, 0x1e, 0x13, 0xbf, 0x4b, 0x07, 0x20, 0xbf, 0x9e, 0x49, 0x9a, 0xbe,
  0x17, 0x86, 0xa7, 0x3d, 0x7e, 0xc3, 0x4e, 0xbf, 0x81, 0xd2, 0x17, 0xbf,
  0x32, 0x86, 0x21, 0x3f, 0x16, 0x61, 0xb5, 0x3e, 0x21, 0x31, 0x4b, 0xbe,
  0x53, 0x69, 0x8a, 0x3e, 0xd5, 0x2f, 0x87, 0x3d, 0x7c, 0xa6, 0x6e, 0x3d,
  0x92, 0x2d, 0x6c, 0x3e, 0xa2, 0x99, 0xc4, 0x3c, 0x56, 0xf6, 0x68, 0xbd,
  0x8a, 0xc1, 0x99, 0xbe, 0xe4, 0x9d, 0x01, 0x3e, 0x11, 0x6f, 0xdf, 0xbe,
  0xfd, 0x13, 0xb1, 0xbe, 0x67, 0x3f, 0x8f, 0x3e, 0xfd, 0x3a, 0x53, 0x3e,
  0xef, 0x29, 0x66, 0xbe, 0xd1, 0x1e, 0xed, 0xbd, 0x8a, 0x48, 0x85, 0xbe,
  0x55, 0xc5, 0x9c, 0x3e, 0x78, 0x4b, 0x10, 0x3f, 0x09, 0x95, 0x00, 0xbf,
  0x83, 0x31, 0xe4, 0xbd, 0x82, 0xb3, 0x0b, 0xbf, 0x02, 0xb6, 0xcc, 0x3d,
  0x34, 0x4f, 0x95, 0xbe, 0x02, 0x8e, 0x18, 0x39, 0xe2, 0x6a, 0x17, 0xbf,
  0xf1, 0xfd, 0x25, 0x3e, 0xeb, 0xbe, 0xe3, 0xbe, 0x6b, 0xef, 0xe7, 0xbe,
